memory_initialization_radix = 10;
memory_initialization_vector=
15
29
-4
41
7
18
16
8
34
40
-24
-1
-6
-13
38
-16
-49
-2
-15
-24
-13
-4
-45
-39
-47
-32
-34
-31
32
5
0
-4
-29
15
33
-31
-41
-30
6
40
-29
-41
-7
30
24
-25
-21
7
12
-1
38
31
22
-36
-61
42
7
6
-54
-33
25
-16
-24
-67
8
-6
-1
-58
-32
21
-24
-47
-23
-24
10
9
0
-3
0
1
-24
13
32
19
4
0
-3
24
30
35
-15
24
20
36
17
-11
29
28
14
25
-38
12
19
-4
5
-35
-2
34
7
-9
-5
23
2
16
-19
-5
34
1
20
-15
28
23
30
-1
-14
-3
29
28
5
-14
-1
-3
33
7
-43
23
24
28
-27
-39
9
14
-9
-31
-18
1
18
25
12
-18;
