memory_initialization_radix = 10;
memory_initialization_vector=
-11329106
-6572119
-15907688
-11375949
-16154124
-11345
11724534
10172383
16818540
-16685604
-366367
22049184
-301016
-12575514
-17558272
2916345
13764159
16488753
-7486826
-4503875
11843328
23581558
1186958
7943690
3355744
-4795326
2749088
12851770
23461366
-14985229
-18039228
-18839856
11400664
-10000286
-6080945
-14898450
7682748
5895978
-8999311
15103405
6515260
11602899
-5215264
-21284992
-12394010
12568064
-18651028
-6833559
-26971414
15123156
11046337
-14092157
1885178
10595141
10452343
12862430
-16471015
-10470501
-17766730
4746871
-3327279
-14826851
-15158450
-331067
3144791
9700475
-2950716
4254831
-12141160
-18236058
21685954
17913716
-4746964
-5390537
-10883408
-11478081
6209036
-2590798
-6926251
13258837
-10258706
7614684
-11618741
-14767327
-13776371
-20776746
-18458314
-5532194
-13080984
22971954
-17281616
14075084
17039528
5960647
5430196
-10523797
-28424770
4118018
9758770
22040050
707747
10658279
27625214
-16243560
-4769728
7487821
-4978377
19169550
-2060534
20751256
20512100
3151019
7736860
19061414
-25729352
10073485
-9925336
3241439
-4094193
-2012520;
