memory_initialization_radix = 10;
memory_initialization_vector=
-20
-6
1
12
-1
-7
-20
4
0
1
-6
-1
0
4
-1
-3
-3
-6
1
15
15
5
-17
-21
-16
-15
5
11
-19
-3
-5
-4
15
-7
11
-12
12
6
19
14
10
2
0
-22
-22
6
-20
12
7
11
-3
0
13
-16
11
-4
-25
-1
-17
-21
-14
-13
16
-8
-24
9
-1
-6
14
-25
-6
0
13
7
6
4
-39
-2
1
1
-16
-4
6
4
-9
-21
1
-17
10
-16
11
-5
3
13
-5
2
12
-13
2
7
-9
-17
-8
-17
10
-9
-7
6
10
3
-13
-7
12
-20
-6
-7
-20
-12
9
-4
13
-1
0
-12
-13
-8
14
-4
-11
10
11
-3
-21
0
-10
10
-8
-17
-2
-12
17
-17
-14
17
18
19
3
-1
-3
10
-17
1
-17
-2
-12
21
-7
-9
1
4
20
1
-12
-4
-10
8
2
-18
7
-9
17
18
-9
-4
-8
23
13
-6
6
23
7
6
19
-5
2
-16
-13
-8
-9
-4
11
-8
14
0
0
-15
-16
20
4
1
20
-15
16
4
-16
-3
-1
2
8
8
-1
-22
-16
-17
-16
-19
-22
4
-9
-14
-2
-3
18
3
-2
-15
-21
-24
7
10
58
-4
-22
12
-22
10
-16
20
16
-21
-12
-2
-13
-21
-31
7
-9
-3
-18
4
18
9
18
-22
-17
4
-3
16
22
4
8
-9
-8
-20
-5
11
4
3
-12
-13
16
7
14
-5
-11
9
-13
0
-14
7
-10
0
-10
19
0
17
-8
-13
-2
-3
-5
-11
3
14
-18
-19
0
-8
5
-15
-6
-11
0
-3
-4
-7
-1
-10
-12
15
-14
6
10
-17
4
-6
-5
-8
-9
-5
-7
20
9
27
0
5
-3
-22
-25
-14
-6
18
12
6
-6
1
6
-4
4
12
17
14
-7
-18
-9
0
4
-17
-4
0
-9
4
14
8
-6
-2
-29
-8
8
-18
11
-10
12
9
17
2
11
-29
-10
16
7
-3
9
5
-3
10
-6
-12
19
10
9
22
20
-14
10
-2
-17
-11
-13
18
-13
10
-9
-15
20
-11
-9
-5
6
-2
-12
12
-12
8
-23
-9
-21
20
12
1
2
-15
0
5
-12
-14
23
-12
-20
8
-15
-1
-23
7
-12
5
-5
4
5
-10
17
-6
-7
-18
-5
5
5
8
6
17
-1
0
14
19
-20
3
6
-2
-2
-10
-7
-14
3
8
-1
3
1
-1
-2
-11
0
8
-13
9
-10
-27
-13
0
-23
5
10
6
-14
15
14
-16
0
8
0
7
-19
0
-5
-20
3
-15
21
3
4
-12
-3
34
10
-12
-7
14
27
-10
-12
9
-4
-10
-7
-11
-13
-17
8
12
-6
-16
-14
8
-2
-11
-6
-1
-19
-11
2
2
3
-15
6
7
2
-8
-18
-5
-17
-7
-14
-8
20
-3
-15
-24
13
8
5
-7
6
-1
1
14
-5
-7
15
-6
12
-4
1
3
10
22
17
-17
-13
14
-15
-15
10
-22
-7
-23
-6
10
-26
-1
-15
-12
14
-4
2
19
3
-23
9
-6
-2
3
-37
0
-10
3
2
-13
-25
-13
12
12
-23
-24
15
-8
16
-6
-24
-9
0
-9
18
1
-6
-3
-29
8
-24
-17
-6
-6
-4
-22
0
-9
20
-3
-9
3
7
0
-12
0
12
0
6
-6
-8
4
15
-17
-18
10
-4
9
3
-13
17
-9
-25
-2
7
-17
20
-11
-17
-1
16
15
-18
6
-16
1
7
13
15
-3
6
-8
-14
-5
-15
6
6
-4
-4
-1
6
0
12
5
26
-4
20
10
17
-10
-14
3
-3
21
-14
11
-4
-4
-2
-2
0
8
19
-14
13
-10
9
-10
15
-4
-7
-3
5
7
-16
12
-1
4
10
24
15
4
-36
-18
-17
-11
-9
-2
-12
-5
1
6
-7
11
0
-12
-2
-13
8
-1
-19
8
-14
-8
-4
-3
-7
16
-24
-5
12
-20
-20
12
3
-3
-11
-16
0
1
-5
0
9
0
-6
19
-7
-4
-6
20
6
-4
0
3
0
-3
-10
12
-13
-12
-18
-18
5
8
-24
0
-1
13
6
4
2
-6
-10
-11
18
-9
0
2
4
19
13
11
-3
6
-26
-10
16
-18
-19
-15
-10
-11
-24
13
10
3
-26
-1
2
5
9
-2
-21
-2
0
8
10
11
19
-4
7
-17
1
13
4
6
-11
-16
8
-12
3
-13
-3
-17
-5
-16
-21
-1
-7
-11
22
1
-11
19;
