memory_initialization_radix = 10;
memory_initialization_vector=
4581847040
384718752
-1087057920
1213952512
-2770498560
1686389376
3201281792
3629927680
1284492160
-2496889600
-2538353408
-3150158080
-793583936
-2132117888
-3897769216
502865984
1097542656
-2430190848
-1634285184
1181200128
2354873088
-4683446784
2196080640
4190348288
-1469504256
-4342012928
-897856256
-2726626304
4085398016
1124305920
-1828427264
-86806680
2532160000
2119422336
4095186688
-4221774592
2022015104
-3297912832
-5582415872
-2157926400
-1636945280
2305256704
-2676987648
-576489664
1294254464
-2517536512
-3603710208
297199200
1731963136
-835837312
927386112
-2333606400
-1679222016
3153510400
3155943680
-2269671168
4836606976
-793913728
1514009728
1793919872
1471927808
3263777536
347575104
-4345078272
3243287552
-3557516288
2843850752
-2850615296
2639109632
1523480576
-2190137600
1123765632
1470574976
-3511269120
-4082001152
3488881408
-3066522624
-4290182144
-2019085824
4821505024
3237417472
-3453235456
482017024
-1179124096;
