memory_initialization_radix = 10;
memory_initialization_vector=
2
-1
-2
-1
-9
0
3
-5
4
1
-4
7
-2
-7
-4
-14
-17
8
-18
11
5
-7
-15
-11
-18
16
4
0
-7
-12
-14
3
8
-1
-18
0
-19
-4
8
-7
-9
2
-22
-6
-7
1
5
1
-24
5
-13
9
5
2
-30
9
-17
7
15
0
-14
-2
0
-1
-15
-15
-40
1
1
14
0
-4
-34
4
-20
1
2
-5
-28
-14
-29
-3
6
-6
-8
-24
-1
-3
16
11
-38
18
0
17
8
-17
-34
5
-8
19
14
9
1
-18
-17
-1
17
-3
9
-16
-2
1
-1
9
11
-3
15
-9
-7
4
-36
5
-19
25
7
8
-44
4
6
21
21
33
-21
-28
-9
-7
2
13
7
6
7
-25
-2
17
13
8
5
-2
-17
-6
-16
-9
22
-14
3
13
-11
1
27
-16
-11
9
-15
-4
20
-11
-14
-11
0
6
15
-11
-15
3
-6
13
7
2
-3
1
-11
-4
7
-13
-10
4
-15
13
6
-14
-2
-16
-27
9
2
-8
-12
-14
1
23
-8
-8
5
-10
12
0
-14
-1
2
-7
-15
14
23
-3
-17
-1
-18
27
10
10
-7
6
-13
14
5
-1
14
1
4
-3
-8
2
0
0
6
-5
-4
-1
11
11
-32
25
7
13
3
12
-2
24
-1
0
17
15
-6
-3
-16
-2
14
18
4
-8
-3
-2
8
25
22
7
6
-3
0
5
-32
4
1
13
17
18
-10
14
-9
7
6
8
5
-1
-6
14
6
18
8
-12
-14
1
3
1
-4
8
-9
1
-3
-2
33
1
-19
11
-15
-22
5
1
-12
6
-5
-19
-3
0
-27
18
-1
3
-16
-8
-18
11
14
0
-8
-13
-21
7
-3
-4
-23
-3
-13
3
-23
-22
-20
10
-11
21
13
5
-10
5
-17
12
16
5
8
6
-16
0
15
7
3
-5
-12
2
7
5
-30
20
-4
6
-11
-22
-19
17
-3
8
18
19
2
-11
1
12
19
20
11
-16
2
-6
-1
11
7
-7
-7
-13
-6
0
-15
5
-22
21
23
-8
-17
4
-3
16
24
32
7
-24
15
-20
11
22
9
0
3
-19
-9
-10
19
-3
-3
-10
-8
-12
-4
-13
1
10
15
23
-1
-6
7
-21
-7
5
17
-16
14
-24
-15
-16
2
-1
-10
-9
-2
-15
2
-16
-7
-17
-11
0
-23
4
10
-3
-8
4
-37
8
9
7
1
15
-19
4
-9
-3
3
11
-10
-1
3
-4
-10
-11
-1
1
7
-12
-11
-1
-4
-1
7
9
-8
-9
-34
10
-1
14
11
11
-16
-10
-2
1
10
16
13
-5
-9
-10
-1
1
17
-6
-5
-7
-5
-6
0
4
-6
9
-17
-9
-30
1
-17
-2
9
14
-9
-6
-21
3
4
13
0
0
-9
5
-3
9
2
-2
-13
0
1
-5
0
15
0
4
0
-10
-7
15
-22
11
1
6
-19
8
-13
8
9
13
1
-17
-24
4
8
5
8
-4
-9
1
-5
-5
2
-2
-15
-7
-8
-7
0
11
-18
8
4
3
0
15
-25
11
2
-2
3
-10
-25
10
-8
10
14
-10
-11
-6
-9
4
-8
-4
-3
5
-17
4
-39
24
-2
18
-3
36
-25
2
0
-1
17
26
0
-10
4
-26
-3
22
11
-1
8
-7
-18
0
-7
1
3
5
-20
0
-24
26
-16
16
1
14
-34
-2
-11
8
7
30
-21
-20
-23
-19
-2
20
-4
2
-17
0
-3
3
3
13
8
4
-27
-20
4
32
-19
11
1
-4
-21
4
-39
10
-6
5
-15
-23
-38
11
0
-14
-20
1
-15
10
13
14
8
7
2
-17
-6
-18
20
32
-33
7
5
5
25
13
-51
8
-6
-9
29
-18
-38
13
-4
-27
26
-20
-5
13
8
0
0
-4
12
-18
-16
-11
6
15
-22
-4
-7
-3
28
0
-27
-15
-6
-13
14
-19
-16
-5
-9
-3
31
-27
10
0
5
4
14
-14
7
-17
-9
-17
-16
15
-14
1
-9
-23
-13
23
-11
20
2
20
-10
4
-6
17
17
14
3
-8
16
-11
1
13
-26
-9
7
-13
-24
-17
-25
11
-16
6
-7
-23
-2
25
-16
0
18
19
0
-13
17
-4
15
19
-6
-13
19
-24
-8
7
-19
0
0
-10
-14
-39
-9
21
-3
0
6
3
-10
17
4
2
8
30
-5
-21
24
-23
-11
11
-1
0
30
-21
-13
-3
-24
12
5
0
12
-6
-11
8
17
0
14
19
-4
2
25
-16
5
7
-11
-11
11
-18
-24
-13
-19
6
-1
-16
-18
-22
-4
5
4
-5
9
26
-15
11
20
-14
0
16
-19
-12
12
-4
-10
2
-24
-1
-6
-6
-24
-17
-29
7
-4
0
-14
-5
-9
-14
-14
-9
-12
-6
0
-1
-16
-1
0
0
-15
-7
7
-6
1
-3
-11
-1
-16
2
-9
-13
-4
-6
-15
-17
2
0
-1
-9
-6
-17
-2
-13
-14
0
17
-2
-10
-17
-8
-8
3
-17
-3
-11
-11
8
-17
-7
-1
0
-2
-16
-15
-10
-17
-4
-11
-6
-17
-9
-10
-12
0
-14
5
-6
-17
-9
0
-7
0
-11
-2
-14
-1
-14
-15
0
13
-2
-12
-15
7
-5
-10
12
2
0
-10
-10
2
-15
-13
-14
5
-5
2
0
1
-3
-17
2
-14
-11
-4
-4
-12
-14
15
4
-14
-12
7
-9
0
-8
-14
1
-10
-6
-7
-6
0
10
-1
-16
-6
-17
-4
3
-11
-1
7
0
-6
-13
-1
-3
16
16
-5
-5
-16
-9
-1
-9
-3
11
3
10
-14
-22
-13
2
-13
19
10
7
-16
9
-18
8
4
5
-3
-12
-7
-4
1
11
0
-2
10
4
-10
1
-29
-1
-1
14
3
-8
-31
6
-17
6
16
11
-18
0
2
-10
2
21
0
0
15
-12
-6
6
-4
-11
-6
-14
-15
-20
-10
-6
-19
17
16
17
-12
-3
2
5
1
20
-3
2
21
-13
0
9
-13
3
6
2
-5
-11
0
2
2
2
3
-13
-2
-4
11
-6
4
24
-3
-6
12
-8
1
18
-3
-9
3
-4
-9
-8
-21
-3
-15
2
5
-4
-15
-3
-20
-4
1
-8
7
2
-2
-5
-1
0
18
-4
-5
-6
-18
-19
0
-10
-28
-1
-14
-10
14
-3
-18
7
-5
-1
0
-15
-9
-3
-6
-10
5
2
-1
3
0
0
-9
-16
-2
-1
9
0
-16
-6
-3
6
-8
3
-23
-9
-5
17
6
-1
-12
-2
-8
5
26
10
1
17
-1
16
-3
-6
0
9
-12
13
-3
-6
-4
1
-21
18
3
-11
3
-15
-15
18
2
-8
8
-21
-16
13
12
9
17
9
-6
15
12
-2
13
4
7
9
-1
-11
20
-6
-5
-4
-2
0
16
-13
-12
9
8
-6
21
0
-17
23
9
18
16
-4
18
-7
-8
-4
23
-20
14
0
-4
5
6
-14
13
-21
-17
1
31
11
-1
0
-10
-8
6
13
1
15
11
-4
0
-8
1
-18
-11
1
-6
-16
7
-8
1
7
6
-21
13
-14
-11
-6
8
16
0
0
-21
-6
10
10
-10
0
9
3
19
19
5
15
3
-6
17
6
8
23
22
-1
33
23
-11
8
27
-9
34
11
-8
12
1
-10
38
-14
-17
19
-3
-8
35
-12
7
-4
0
-12
29
-11
19
-11
-10
-10
37
0
24
-15
-7
0
31
0
16
-7
7
-7
35
7
-9
6
-1
-12
27
-46
-1
-29
-9
-14
27
-22
11
-12
-26
-14
4
-26
14
-21
-20
-39
22
-9
6
-21
-1
-28
14
8
-7
-5
-6
2
-8
-15
-17
19
8
-15
-18
-35
-16
-7
-4
-1
0
-30
2
0
5
-8
-10
-15
14
-18
-7
-19
-17
-8
18
-9
-7
-13
8
13
-2
29
19
-8
-14
-7
5
16
8
-2
-6
-10
-5
23
20
2
-9
1
-7
17
16
10
-32
-25
5
3
3
-1
-12
4
-10
19
6
-11
5
11
-2
8
0
-9
-10
-10
-18
21
13
5
-3
-4
-27
18
17
13
-6
-6
-28
19
12
3
19
24
-14
17
8
-12
26
8
-15
5
16
-5
18
-6
-10
3
-1
-10
30
-9
-25
16
5
2
11
6
-34
5
0
3
18
4
1
7
3
-10
18
-1
22
-5
4
3
26
-14
14
0
-10
-17
37
-2
-10
8
-14
-19
26
-1
-32
0
-12
-4
16
-16
16
-18
6
6
7
-28
30
-19
3
-3
5
-11
25
-14
-14
-14
12
-8
-8
-16
-8
-19
14
-12
-11
1
-5
-6
-6
-9
12
-13
0
2
-22
-1
8
0
-9
10
-13
-3
15
7
0
-15
-23
5
4
-3
-5
6
-13
-10
-2
3
5
-2
-27
0
6
8
-8
15
-28
24
-10
-2
-5
7
-19
21
-7
-3
11
15
5
-4
11
-23
4
23
-6
10
11
-18
-3
5
-25
10
0
8
1
23
-19
15
-7
-2
5
24
-3
-11
2
1
-3
21
-20
-15
8
-9
-11
10
-6
12
7
7
6
5
2
15
0
15
4
5
-16
-4
-20
12
0
19
-7
-10
-18
-4
2
2
-36
-16
-15
8
-2
-5
-33
-7
-10
11
1
-2
10
2
-17
7
0
-11
0
-5
-18
5
-1
3
1
-22
-21
9
6
-20
-15
-9
-28
9
6
3
-8
-26
0
13
5
9
20
-6
-6
-11
-2
-12
5
-10
-9
-2
0
-17
13
-2
-11
2
-13
-13
4
-4
-5
-9
-11
-5
-6
-15
-7
-2
-1
3
-11
4
-11
6
16
15
17
-5
24
7
-2
4
10
19
7
-11
-3
-4
5
20
4
-26
5
8
-9
-5
13
-24
-14
0
-21
-7
15
8
11
26
2
6
27
-9
7
13
0
18
12
-12
-10
5
1
18
12
-33
-15
-12
-4
28
2
-13
-20
-19
-18
11
21
19
5
27
-14
18
9
-14
0
13
-12
11
9
-23
-16
1
-17
28
-2
-28
-18
-33
-22
29
-2
-11
-10
-30
-13
16
33
2
2
16
-7
8
17
1
6
16
-4
12
16
-24
-13
-1
-13
27
6
-24
-29
-33
1
22
10
-11
0
-5
-12
27
23
11
7
16
-18
6
20
-6
6
0
-9
31
10
-27
-22
-12
-10
26
-1
-11
-18
-19
-4
20
12
1
14
7
-24
1
-9
3
-2
1
-21
-7
-4
3
3
-3
-9
-10
-2
-2
-8
0
-22
-12
-14
9
2
10
-12
-9
-11
-17
-7
-1
-1
-5
1
-6
-16
-17
-5
-1
-18
1
-4
-11
-24
-1
-2
15
-2
-4
-11
-8
-5
13
15
16
3
12
-14
-2
6
-2
15
-6
-2
-5
-13
-12
0
0
3
14
-21
-27
-23
19
-22
9
2
-13
-29
9
-12
14
12
8
10
5
4
1
3
2
2
-16
-14
-2
-14
-33
-11
21
-14
10
-4
-15
-26
9
-7
5
6
6
-21
1
-7
2
23
27
1
-2
7
-25
-8
6
-3
-1
0
-2
-14
-35
-21
8
-3
14
2
-19
-22
35
-16
16
20
21
-29
-20
9
7
16
31
1
-6
7
-21
-24
4
-3
21
12
-21
-28
-10
-23
22
-5
7
-10
-10
-22
0
-15
10
15
13
3
-7
5
-13
6
14
10
-6
3
-22
-15
-15
4
20
8
-27
-34
-7
-2
34
3
3
-5
-16
-32
5
-16
5
24
25
-14
-24
7
-11
0
13
-4
-3
0
-24
-6
-13
-20
21
27
-24
-21
-15
-13
39
-14
8
-11
-11
-29
2
-7
11
7
23
-16
-26
5
3
-1
20
-10
14
7
-23
-26
-4
-4
6
10
-24
-15
-21
-1
28
-2
1
-7
-14
-9
22
-18
14
17
17
-5
0
-2
-4
7
16
-5
15
2
-3
-17
0
-8
4
12
-8
-10
-22
10
30
1
-10
-8
-5
-6
27
-20
-1
9
6
-15
10
-4
12
-2
3
-12
2
-10
-6
-6
14
1
7
14
-2
-8
0
-12
-5
7
-5
9
20
-2
14
20
-4
-6
11
-13
25
28
3
-16
-7
-23
25
8
6
6
9
0
-3
20
-3
-1
12
0
-10
7
-10
-7
9
24
-6
24
-21
-16
5
30
31
8
1
-21
-17
31
25
5
9
-8
-17
-22
0
9
0
-6
-14
-8
-5
-6
-8
2
8
15
-19
4
-12
4
2
30
9
-11
-24
-15
-1
42
16
-2
-15
-4
-7
-1
0
-13
17
8
-11
-13
-18
-4
10
12
-1
-12
-13
-26
5
9
13
0
-6
-17
-10
12
5
-9
-7
-5
-10
1
-12
8
3
-5
17
12
-12
2
-1
-11
21
-3
-8
0
13
-29
23
1
3
-25
2
-21
9
9
-1
-26
-4
-16
3
18
6;
