memory_initialization_radix = 10;
memory_initialization_vector=
-80
-26
4
50
-6
-30
-82
18
3
5
-24
-7
0
16
-4
-12
-12
-27
5
60
61
21
-70
-85
-64
-61
20
45
-76
-13
-23
-16
61
-30
45
-50
51
27
77
58
43
11
2
-90
-88
24
-82
49
28
46
-14
-2
54
-66
47
-19
-103
-5
-68
-85
-58
-53
67
-32
-96
36
-7
-24
59
-101
-24
0
53
28
25
19
-157
-10
6
7
-65
-18
24
19
-37
-86
6
-69
40
-66
46
-22
13
53
-23
8
48
-54
10
29
-36
-71
-32
-70
43
-39
-28
26
43
14
-52
-28
49
-80
-27
-28
-82
-51
38
-16
55
-6
2
-48
-54
-34
56
-16
-46
40
46
-12
-86
-2
-41
41
-32
-69
-10
-48
70
-70
-56
69
73
78
13
-5
-15
42
-70
7
-68
-8
-51
84
-31
-38
5
19
80
5
-48
-17
-40
34
9
-73
30
-36
71
72
-39
-19
-35
93
54
-24
24
94
31
26
78
-22
8
-64
-55
-32
-37
-17
45
-32
59
3
-2
-62
-66
80
17
5
82
-61
64
17
-64
-14
-5
8
35
32
-7
-91
-65
-69
-64
-76
-90
19
-36
-57
-8
-14
73
14
-11
-62
-87
-98
28
41
232
-16
-91
50
-88
40
-64
81
64
-85
-48
-8
-55
-87
-125
28
-39
-14
-73
17
75
36
73
-89
-68
17
-12
67
90
19
35
-39
-32
-81
-22
46
17
15
-48
-54
64
29
56
-23
-46
38
-54
-2
-56
30
-40
-3
-43
79
2
68
-35
-53
-11
-15
-21
-45
14
57
-73
-76
0
-33
20
-63
-26
-44
-3
-15
-16
-30
-7
-42
-50
63
-59
24
40
-70
17
-24
-21
-33
-37
-21
-29
81
39
111
0
21
-15
-88
-102
-58
-26
73
49
27
-25
5
27
-16
17
50
68
58
-31
-74
-37
0
16
-69
-18
-3
-37
18
59
34
-26
-11
-116
-32
33
-72
44
-40
48
38
69
9
46
-119
-40
66
30
-13
36
21
-13
41
-24
-51
79
40
39
88
83
-59
43
-10
-68
-47
-53
75
-55
41
-38
-63
83
-44
-39
-21
24
-10
-49
49
-49
32
-94
-37
-84
83
50
5
9
-63
3
23
-49
-58
93
-49
-82
34
-63
-4
-93
30
-51
23
-23
19
23
-41
68
-26
-28
-72
-21
21
23
32
27
69
-6
-1
57
77
-81
12
26
-10
-9
-42
-31
-57
12
33
-5
12
4
-5
-8
-46
-3
35
-52
39
-43
-108
-53
3
-92
20
42
24
-56
62
59
-65
-2
33
-3
30
-79
3
-21
-83
15
-63
86
15
19
-50
-14
136
42
-51
-30
58
111
-40
-51
36
-17
-41
-28
-44
-55
-70
32
51
-25
-66
-57
33
-11
-44
-25
-7
-77
-47
10
9
14
-61
27
29
9
-35
-72
-21
-70
-30
-56
-33
83
-12
-60
-97
53
33
20
-29
27
-4
5
57
-23
-29
60
-24
50
-19
4
14
41
91
69
-68
-53
56
-60
-62
42
-89
-30
-92
-24
41
-104
-4
-63
-49
57
-16
10
77
15
-93
39
-25
-9
13
-149
-2
-41
13
8
-55
-101
-53
48
51
-93
-96
63
-35
65
-24
-98
-38
0
-36
72
5
-26
-13
-116
34
-98
-69
-26
-26
-16
-90
-3
-37
83
-14
-37
14
30
-2
-48
0
50
0
26
-27
-32
18
62
-69
-74
42
-16
37
12
-53
70
-37
-100
-11
29
-69
80
-44
-71
-6
64
61
-75
24
-65
6
28
54
60
-13
25
-32
-57
-21
-61
25
27
-16
-19
-4
25
-1
51
20
105
-16
82
41
68
-42
-57
14
-15
87
-59
46
-18
-19
-10
-9
-2
32
77
-57
52
-43
38
-42
63
-17
-28
-12
22
29
-66
51
-5
18
43
97
62
17
-145
-74
-68
-44
-37
-9
-48
-22
6
25
-31
46
3
-51
-11
-54
32
-7
-78
35
-58
-33
-17
-14
-29
65
-98
-20
50
-82
-82
51
14
-13
-47
-65
2
6
-21
3
38
-2
-25
77
-28
-19
-27
82
27
-19
-3
14
0
-12
-41
51
-54
-48
-74
-74
21
32
-98
0
-6
52
25
17
9
-24
-43
-44
73
-36
3
8
19
77
53
46
-15
27
-106
-43
67
-75
-78
-61
-43
-45
-98
52
41
12
-105
-6
9
23
38
-8
-84
-9
-1
35
43
47
77
-17
30
-71
7
55
17
25
-46
-65
35
-50
15
-55
-13
-70
-23
-64
-86
-4
-28
-44
89
7
-45
79;
