memory_initialization_radix = 10;
memory_initialization_vector=
-2900251136
-1682462592
-4072368128
-2912242944
-4135455744
-2904571
3001480704
2604130048
4305546240
-4271514624
-93790168
5644591104
-77060168
-3219331584
-4494917632
746584512
3523624704
4221120768
-1916627456
-1152992000
3031891968
6036878848
303861312
2033584640
859070592
-1227603456
703766720
3290053120
6006109696
-3836218624
-4618042368
-4823003136
2918569984
-2560073216
-1556721920
-3814003200
1966783616
1509370368
-2303823616
3866471680
1667906688
2970342144
-1335107584
-5448957952
-3172866560
3217424384
-4774663168
-1749391232
-6904681984
3871527936
2827862272
-3607592192
482605728
2712356096
2675799808
3292782080
-4216579840
-2680448256
-4548282880
1215198976
-851783488
-3795673856
-3880563200
-84753320
805066688
2483321600
-755383296
1089236736
-3108136960
-4668430848
5551604224
4585911296
-1215222912
-1379977472
-2786152448
-2938388736
1589513216
-663244480
-1773120256
3394262272
-2626228736
1949359104
-2974397696
-3780435712
-3526750976
-5318846976
-4725328384
-1416241792
-3348731904
5880820224
-4424093696
3603221504
4362119168
1525925760
1390130176
-2694092032
-7276741120
1054212800
2498245120
5642252800
181183344
2728519424
7072054784
-4158351360
-1221050368
1916882176
-1274464640
4907404800
-527496800
5312321536
5251097600
806660864
1980636160
4879721984
-6586714112
2578812160
-2540886016
829808576
-1048113408
-515205120;
