memory_initialization_radix = 10;
memory_initialization_vector=
4691811368960
393952002048
-1113147310080
1243087372288
-2836990525440
1726862721024
3278112555008
3717045944320
1315319971840
-2556814950400
-2599273889792
-3225761873920
-812629950464
-2183288717312
-3991315677184
514934767616
1123883679744
-2488515428352
-1673508028416
1209548931072
2411390042112
-4795849506816
2248786575360
4290916646912
-1504772358144
-4446221238272
-919404806144
-2792065335296
4183447568384
1151289262080
-1872309518336
-88890040320
2592931840000
2170288472064
4193471168512
-4323097182208
2070543466496
-3377062739968
-5716393852928
-2209716633600
-1676231966720
2360582864896
-2741235351552
-590325415936
1325316571136
-2577957388288
-3690199252992
304331980800
1773530251264
-855897407488
949643378688
-2389612953600
-1719523344384
3229194649600
3231686328320
-2324143276032
4952685543424
-812967657472
1550345961472
1836973948928
1507254075392
3342108196864
355916906496
-4449360150528
3321126453248
-3642896678912
2912103170048
-2919030063104
2702448263168
1560044109824
-2242700902400
1150736007168
1505868775424
-3595539578880
-4179969179648
3572614561792
-3140119166976
-4393146515456
-2067543883776
4937221144576
3315115491328
-3536113106944
493585432576
-1207423074304;
