memory_initialization_radix = 10;
memory_initialization_vector=
-26
-12
-29
-22
5
-6
-34
-39
-54
-3
-45
-50
-29
-62
-7
-58
-29
-23
-17
-39
-33
-17
-24
-37
-57
-53
-26
1
-45
-5
-21
-2
-16
-31
-31
-40
-22
-5
-39
-43
-41
-19
-39
-12
-32
-17
-47
-13
-8
-13
-33
-26
-25
-26
-40
1
-15
0
-43
-18
-21
-23
-3
-53
-16
-10
-7
14
-45
-33
1
4
-29
-53
-21
9
-26
-62
-63
-37
12
-18
-54
-26
-25
-19
-19
-36
-59
-21
-35
-7
-53
-24
12
6
-2
-38
-33
-16
6
16
-61
-48
-4
9
9
-36
-44
1
-8
-9
-41
-23
-3
-13
-10
-34
-38
0
-33
-31
-34
-46
6
3
-36
2
-57
-51
11
-4
-18
-50
-23
0
-12
-15
-40
-31
-27
-20
-5
-56
-16
44
48
33
-48
-3
-6
-8
-48
6
-19
51
-11
-10
45
39
49
-16
-20
23
36
47
13
-20
55
46
51
-36
-44
36
47
26
-54
-15
-60
-40
14
-1
7
-54
23
29
-38
-29
-37
21
0
-39
-61
-31
13
-28
-28
-59
-37
-25
-2
-14
-31
2
15
39
-10
15
-37
2
25
-26
-52
-48
-7
18
-37
-51
-11
39
8
-56
-52
-48
15
0
21
-50
-7
27
40
43
36
-21
26
12
52
31
-35
49
17
16
32
-20
20
26
15
-54
-13
14
4
-31
-33
-21
-16
23
-47
-22
-23
-45
-4
-22
-46
-34
0
4
-31
-33
-46
13
-1
-54
-26
-19
4
-12
-33
0
-24
1
2
-15
-17
-51
-8
-31
-2
-20
-31
-14
-36
-31
-44
-25
4
-39
-17
-40
-43
-29
10
17
30
-53
-67
-10
-28
-1
-8
-52
22
-12
-14
-47
19
19
-17
-17
-33
19
20
-40
13
-47
-34
-54
-34
-38
-60
-15
-13
-27
-67
-59
-42
-40
-22
-26
-68
-57
-17
-27
-28
-23
-25
-33
-36
-57
-68
-16
-22
32
-19
-20
-47
-6
-27
-26
-41
-26
-14
-44
-38
-19
-54
-7
-39
-62
-10
-14
-32
-31
-2
-44
-49
-17
-38
-12
-47
-9
-33
-2
-21
-18
0
-39
-23
-8
-37
-16
-39
-50
-30
-45
-5
-40
-1
-31
-18
-39
16
-49
-79
-21
13
-17
-19
16
35
-4
-17
-33
-38
-21
-42
25
-59
-14
-34
-16
-33
-22
9
-54
-2
-10
5
-26
30
-3
-11
40
39
11
-25
-3
33
-7
-21
-13
-4
-3
-29
-7
-42
-1
-10
-15
-3
-47
58
-27
-58
4
14
-18
-77
-62
-10
13
-40
-29
-75
-43
-27
29
19
-32
-26
-14
8
-43
-21
-10
-7
-35
-40
-50
-14
-12
-10
-58
-48
14
-51
-19
-30
4
9
-33
-9
-21
-46
-4
31
19
-42
-19
28
-22
2
-5
-6
-28
29
-24
-33
-40
0
-25
22
25
-13
2
-26
-36
-7
10
4
3
25
-48
-29
0
-31
17
6
-22
69
38
42
-8
-9
-29
-4
-8
-67
-51
-33
-20
-1
4
-44
-28
-33
-8
5
19
-15
-40
-18
-47
-50
-5
16
-30
-6
24
48
-51
20
48
8
8
-26
33
-5
38
41
-52
-16
-36
17
46
25
6
44
-30
-77
3
18
26
-47
-36
-2
-29
-57
-44
-13
-2
-14
-32
16
38
29
-2
-56
-51
-19
20
-8
-19
0
-23
-44
-64
-76
-52
-64
-35
-31
-38
20
27
-44
-34
30
30
-9
-17
-44
-54
-35
16
40
54
53
5
-46
-21
18
28
14
-31
-5
5
-65
-59
-67
-14
-4
6
4
-38
2
31
-3
-25
-55
35
51
48
26
-26
-17
1
-26
-53
-48
-42
-26
-20
5
20
-10
-11
6
-10
13
-24
-39
-60
-28
-20
20
-39
-61
21
-59
-39
-37
-14
-40
-29
-1
37
23
34
-5
30
-45
-46
-47
-37
0
-28
-53
-53
-11
-18
52
86
58
-25
-10
46
35
0
-51
39
8
-40
-47
-2
-1
-25
-27
-42
-17
1
-28
-16
-10
-18
19
42
-45
-17
21
-12
-10
-48
-23
23
-41
-14
-31
-28
-6
-22
-71
-39
-38
-52
-83
-23
-45
-42
-76
-87
62
84
28
92
64
63
81
47
44
19
-18
40
21
45
15
-23
-65
17
-22
-49
-4
-25
-5
42
-42
-9
-16
-23
-45
0
-4
23
-5
-41
-44
-11
20
-37
29
38
-3
23
-46
-2
-8
18
-30
15
9
12
-10
-11
-51
30
-34
-7
-21
-15
-34
-16
-24
-50
-41
-56
-10
-26
-42
-32
-22
-23
-55
-30
-16
-42
-9
-18
-5
-20
40
-47
-26
-55
-32
-43
-50
-7
-46
-10
-49
-42
-7
-52
1
-38
-20
11
-34
-5
-19
6
-25
-20
-41
-45
-21
-16
47
-52
-23
-42
37
-15
-29
16
-28
-17
-17
-37
-49
-45
-13
-6
-19
-46
-29
-47
-40
-29
-28
-10
-46
-23
-24
-16
-13
-41
-12
-39
-21
-39
-10
-11
-28
-5
-52
-49
-8
-30
-16
-31
-19
-48
-13
-46
-7
-23
-32
-41
47
-28
28
11
-43
26
-8
-14
-33
-20
-17
-30
-41
-21
-36
-35
-34
-27
18
-44
-34
-9
-39
-15
-15
-11
-27
-51
-5
35
29
39
9
-16
52
43
-6
39
39
10
-9
-51
-43
7
-53
-30
-39
-48
-8
19
-42
-47
13
-30
27
13
11
50
-8
-6
-12
-14
-36
-32
12
-12
-45
-50
-13
-21
-54
-5
-46
-29
-29
-46
-32
-39
24
-34
-24
-26
-47
-39
-16
-6
-16
-10
-20
-51
-34
-51
-14
-27
-48
-18
-13
-52
-35
-13
-39
-51
-53
-16
-20
-44
-48
-31
-31
-18
-31
-44
-17
-42
-27
-49
-42
-17
-10
-44
-41
-15
-18
-20
-36
17
-30
-55
26
-15
5
-25
-43
-33
-15
22
-42
-51
-52
-22
8
-26
-6
-52
-52
-7
-23
-39
-12
-20
-41
-41
-20
-21
-26
-5
7
-35
-19
-5
-24
-20
-8
-54
-51
-18
-25
-6
-12
-25
-26
-19
-28
48
50
29
-55
-14
-37
-54
-30
-39
-12
-33
-21
-20
-41
-38
-26
-38
-43
-33
-4
-5
-23
-25
-51
-25
-13
46
52
39
-14
55
55
28
28
32
13
15
41
14
21
35
14
34
-47
-15
-18
-24
-25
-52
-32
-27
-43
-53
-10
-48
-30
-41
-32
-32
-42
-42
-15
-42
-30
-32
-10
-52
-38
-7
-8
-52
51
-28
-34
-20
-12
15
-33
45
45
-46
31
-19
12
33
11
13
-47
50
-53
-39
23
50
36
-9
-27
-29
11
22
-3
-13
-17
-52
-36
-54
-9
-44
-17
-45
26
-19
-32
-37
-42
-18
20
-19
-12
-1
-47
-40
-45
-25
-40
-14
-48
-25
-50
-44
-10
-19
-17
-25
-56
-29
-35
-36
-45
-49
-32
-30
-39
-36
-41
13
-38
-9
-16
-7
-20
-45
-42
-12
42
14
17
-9
26
-45
25
0
22
3
-15
24
-16
21
-4
7
-50
-35
-11
-52
-13
37
-46
9
-12
15
-7
-37
32
-15
-39
-54
27
-12
-32
-52
-16
-48
-32
-44
-32
31
26
-37
-38
-41
-55
-38
-24
-40
-41
-41
-12
-26
-25
-52
-30
-40
-27
-14
-41
37
52
-13
-53
-37
37
52
27
-41
-51
26
-26
-37
-18
-13
-5
-10
-21
-53
-16
-45
-13
-24
-12
-6
31
12
-45
-30
-45
-26
-36
-50
-50
-49
-19
-33
-54
-33
-34
34
26
-17
-20
15
-42
-28
-55
-53
-9
-33
-8
-38
-9
-28
13
-44
-54
-43
35
-41
-37
-16
42
51
-14
-50
-16
-30
-46
-14
38
41
-54
-28
25
-53
-25
-30
42
46
-19
-43
-7
-13
-16
-50
-53
-20
-29
-49
-6
-13
-31
-21
-52
-13
-11
-53
-24
-10
-11
-28
-41
-54
47
-8
-47
30
-11
-54
-55
-44
-17
6
-12
-41
-42
-17
21
-21
-36
-55
-13
-46
35
-26
-16
-9
30
-9
-44
-17
-51
-37
-31
9
34
-21
-15
35
25
33
-17
-31
50
-14
-15
-21
-55
-51
13
-34
-37
-32
-50
-37
-6
-38
-15
41
27
-34
-6
-25
-8
-18
-21
-31
-45
-38
-48
-31
-35
-54
-11
-7
-15
-23
-53
39
-25
-36
-30
-46
-6
-53
-20
-42
-19
-9
-46
-49
-52
-12
-41
-11
-46
-30
-26
-26
47
-13
-29
14
8
-25
-1
-26
-54
1
-10
41
-20
-36
0
11
12
-31
-30
-22
36
-45
-31
-27
16
-49
-10
-33
-15
-15
-40
-40
-49
-28
-10
-33
-36
-12
-27
-53
-51
-54
-32
-37
-28
-50
-17
-21
-29
-9
-23
-25
-7
-34
-35
-20
-19
-35
-9
-24
-38
-5
-46
-34
-33
2
-32
-22
-51
40
-5
-49
0
-51
1
11
-22
-40
-15
-9
-11
9
0
29
33
-1
28
-41
-4
-4
37
48
-19
-17
24
14
5
21
-4
16
-19
12
-26
14
-46
-54
-26
-48
-43
-29
-24
-11
-45
-5
-15
-28
-25
-49
-12
-18
-52
-46
-42
-17
-27
-13
-15
-50
-38
-5
-9
-16
-2
29
0
24
-17
8
39
9
-22
28
-28
-11
-4
-47
-31
-6
-8
24
4
8
-24
-2
-22
-48
-39
-26
-29
17
40
-32
-49
-29
14
-48
-36
-49
-15
-45
-29
-50
-45
-33
-48
-51
29
-14
-11
-14
-18
-16
-34
-20
-35
-38
-27
-32
-16
-56
-50
-24
-8
-7
-50
-18
-41
-45
-7
-45
-40
-54
-32
-21
-46
-52
-11
-33
-16
11
-5
-34
-35
-29
-12
-27
-22
-51
-6
-35
-20
-37
-7
-34
-32
-22
-36
-27
-42
-49
8
-23
-54
-6
-50
-41
-1
-12
-27
49
30
14
-1
31
-30
-40
-37
14
-48
-39
-50
38
-24
-39
-16
31
-23
-22
11
-14
-14
-24
-30
3
-39
-8
-7
5
43
-30
-22
-38
-20
-14
16
37
49
-14
-8
-45
-7
-10
-54
-54
-5
-54
-10
-53
-8
-43
-55
-54
-11
-36
-24
-48
-42
-42
-28
-53
-55
-51
-47
-38
-12
-5
-34
-45
-12
-15
-9
-34
-18
-9
-54
-42
-30
-18
-54
-15
-33
-5
-40
-49
-33
-16
-13
-15
-35
-20
-44
-38
-24
-45
-20
-33
-47
-35
-12
42
-11
-36
-25
-46
34
-52
-25
-53
-47
-35
-20
-29
-41
-10
-51
-54
-17
-20
-5
-25
-51
-50
-19
-31
-34
-27
-14
-46
-18
-35
-55
-23
-26
-30
-13
-38
-42
-9
-34
-15
-5
-22
-56
-20
39
-22
-30
-10
-23
-47
-31
-45
-48
-33
-14
-22
-49
-15
-31
-34
-33
-43
43
-10
-4
-39
-25
-27
-15
37
16
29
-43
-15
3
6
3
-51
-8
46
19
-1
31
-48
5
30
23
11
-27
-51
-55
-26
-19
-24
-38
-35
-11
-20
-45
-17
-42
-38
-54
-15
-22
-15
-10
-27
-47
-8
-13
-54
-51
-17
-25
-51
-5
-40
-23
7
20
-12
-44
-33
15
33
0
-18
37
29
22
-37
-9
3
-36
-9
21
0
-13
16
-16
23
16
20
-13
15
23
-10
-20
-31
-5
-9
-32
-6
2
24
7
-1
5
14
42
9
-18
1
-30
-40
-17
53
-11
-61
-21
-19
-5
-7
-61
-77
-39
-32
-12
-17
-35
2
35
62
-12
52
92
107
12
-29
-19
-32
-16
-20
-24
-18
-21
-8
-29
-41
-59
-20
-26
-8
28
6
-18
59
62
64
32
65
87
-6
-5
12
7
47
-9
38
24
53
48
-2
10
11
-22
-27
-5
-97
-75
-51
8
65
-54
-54
11
40
33
36
-32
-7
23
12
-67
-59
0
12
19
-20
-31
-51
-33
20
0
-61
-60
1
17
50
15
-3
-6
20
75
20
-17
19
30
-48
-53
-6
24
-18
-55
-28
-22
-44
-21
16
-42
-36
-15
40
77
55
1
-5
-28
-56
-21
-50
-9
-6
11
24
-11
2
-19
34
-25
46
-11
-5
-13
-39
-61
30
27
-53
-69
16
61
42
4
35
19
13
22
10
43
53
-25
40
-7
39
-23
-14
41
19
-43
-6
40
27
15
-30
-48
-34
-44
70
16
-28
19
-11
32
-24
14
53
12
-43
-34
-5
16
13
-36
-66
-72
-9
27
-36
-40
-71
22
54
-33
37
47
33
-17
-5
9
39
46
56
-8
-29
39
11
-13
-37
-39
-34
-78
-19
12
-14
-5
0
57
70
63
8
-58
-41
-17
-1
32
57
-38
-8
27
-6
46
115
51
57
99
61
0
-2
1
-27
-54
-62
20
62
42
14
-34
2
34
42
31
65
-23
-8
31
33
3
17
0
-9
-65
-9
-12
-54
-45
6
-1
-31
42
34
10
6
-49
-30
-45
51
17
-38
-61
-34
16
-5
-64
-30
23
-8
-22
69
22
14
7
29
-29
-108
-49
64
45
21
-47
-23
7
-6
71
71
20
-15
4
4
11
-91
24
-6
-65
-56
-77
19
12
-45
-27
37
-2
-21
12
-4
37
24
-30
-52
-2
-18
10
6
-107
-83
27
43
78
-7
15
45
28
-31
-76
-64
-19
-71
-31
-46
-22
-2
-100
-73
48
52
96
38
-68
-10
7
33
55
-7
-38
-75
-48
0
-32
11
-43
0
24
-4
-30
-56
-47
7
-23
9
17
-71
-6
-8
95
90
18
14
26
64
18
-1
-3
4
37
59
43
-39
-12
53
15
0
4
6
-19
25
7
33
18
4
55
27
-31
-13
-36
-33
-47
-47
-5
21
36
-13
-45
4
22
21
8
-13
28
-14
-45
13
0
14
-26
-2
7
3
11
-17
-31
-13
-19
-3
-8
95
45
-27
-26
-4
9
-6
-7
3
-7
22
-2
-23
13
-2
1
59
-22
11
-6
-3
-6
-20
17
-45
30
10
-52
-29
59
83
27
-55
-30
3
49
46
9
-10
-29
58
15
-2
-26
-50
41
27
-6
11
-126
-7
23
-14
-2
33
42
28
-42
-56
88
39
27
-18
-43
-35
49
27
-1
-36
-20
34
45
-8
16
40
78
78
48
18
-32
23
5
-3
11
-10
10
-23
-35
14
-21
-21
0
-16
-4
-15
-45
-25
-11
1
49
-17
-46
-8
-37
5
37
-37
15
-21
53
12
-30
11
-9
26
50
-45
51
-26
-8
28
-21
54
33
-3
21
44
46
7
-6
29
28
-27
-25
0
32
6
-27
-32
-21
31
29
6
10
-30
3
40
3
-6
33
-57
-40
27
125
45
-57
-49
-57
38
39
31
-35
-6
79
15
4
3
9
1
51
-7
-2
-22
-12
-116
-44
-13
51
148
-77
-7
23
44
166
-4
-38
-15
57
117
-50
-54
-71
-38
232
-7
-73
-97
-40
-49
-41
-81
3
75
75
6
-35
-29
10
31
81
10
-96
-43
67
48
0
-43
-18
14
34
10
-4
-20
-4
38
-10
-28
-14
-7
58
-8
0
-48
-63
18
30
31
-4
-65
3
3
-10
-13
-20
-12
2
38
-11
-4
9
93
71
-30
7
-50
49
8
-14
-52
-36
-71
-7
-40
0
-36
-34
0
-21
14
-25
-68
11
10
-15
40
71
-6
-19
-5
39
30
-27
-51
10
51
9
-3
-52
-36
45
37
-17
-55
29
-8
36
-16
-3
33
31
21
-1
31
-21
53
69
-29
-14
-41
22
31
0
-70
-57
-28
27
-27
-30
-52
20
62
5
-22
-14
-49
-5
-10
-33
-31
-27
54
45
15
11
-17
-2
21
8
-23
-75
-52
-32
-28
-15
-24
-51
-23
-35
-9
-60
-63
-16
34
-7
-70
-44
24
32
-16
42
-14
29
43
8
36
-31
47
7
78
-7
-2
21
-3
41
18
-28
-20
-18
4
-21
-12
11
37
30
19
15
22
29
20
42
10
10
59
43
-6
5
38
31
60
-11
-5
20
16
27
26
-29
5
25
12
-5
-34
18
0
-38
-6
-22
-26
13
16
52
22
1
-3
42
22
-25
33
39
-1
-39
-28
-8
26
-17
-50
-67
3
27
-27
52
-2
9
-2
22
44
6
27
31
9
129
34
-14
26
-19
-8
-59
-52
21
3
-74
-88
-17
6
-3
-7
-66
31
4
45
46
14
15
12
6
14
41
-22
-21
4
5
-41
-17
29
13
43
-49
28
41
-16
20
0
-39
11
12
26
-33
-45
-10
34
14
44
39
54
-39
-41
7
37
18
-15
-37
-47
5
-24
-42
-45
11
31
31
24
10
47
19
25
12
18
64
46
51
44
34
9
-30
22
-7
-55
-41
-20
30
-23
-20
-65
30
33
-16
41
10
37
23
35
6
36
22
9
-29
2
27
-20
7
-7
9
38
-32
1
-30
-17
35
-26
1
57
-14
40
65
91
100
95
139
132
122
-48
58
63
26
93
-27
-9
-6
32
-36
-86
18
41
65
92
69
15
124
102
39
144
60
37
7
-19
15
42
44
47
-28
-15
-13
12
36
-22
-48
1
42
9
-47
-14
-23
22
32
59
82
19
46
9
-11
-6
-59
14
-31
16
-18
-46
-27
-36
0
-6
-10
-3
41
39
15
52
35
11
85
24
-25
40
93
101
6
-1
-14
68
14
-4
46
2
49
6
6
18
28
-7
-5
-18
36
79
-31
-32
7
-21
6
-1
34
21
-27
-16
23
22
-36
-35
-3
1
-3
9
-46
-31
26
24
-6
-10
9
-18
0
-16
-39
-27
37
-8
49
-57
-10
25
17
56
5
-34
-8
3
-14
-26
-33
-5
-43
-24
-31
-31
-45
-43
-13
115
27
44
-14
-22
31
-27
21
-2
-26
-26
2
46
28
-2
58
62
13
45
37
-15
5
-36
-42
-44
4
-32
-25
25
-31
-5
-60
20
35
-27
22
4
53
22
-25
71
5
-22
-27
21
23
-23
-26
20
36
16
8
10
-2
0
-17
-21
-17
31
-46
25
-9
-1
21
-11
48
41
38
6
61
27
7
7
15
42
-58
0
-7
28
8
-53
-45
9
16
50
-6
-20
37
22
-47
-38
-4
18
-33
-9
10
-10
11
7
53
-1
10
5
6
16
-26
-38
22
0
-34
-31
-21
35
31
-40
-8
-7
9
42
-13
36
10
9
39
45
6
6
13
-10
14
9
-25
-30
23
-24
-12
-68
-2
18
-63
-11
-40
37
30
-21
53
18
19
-16
4
-29
-16
-2
18
44
-9
-37
-4
39
23
-45
-16
22
36
10
-12
54
-9
-49
-8
-45
11
-27
-9
25
-27
47
-4
-9
-36
48
12
16
-33
-53
-25
43
28
-54
-28
-15
49
5
-13
-43
-50
25
54
34
1
18
30
19
37
20
24
-12
-40
18
11
-26
-35
-6
52
-16
-15
-58
7
1
-49
12
37
-7
-19
24
-14
49
18
6
-20
-13
56
-31
-3
-27
-7
13
5
12
-25
-31
-16
-11
22
-89
-26
12
7
18
45
46
36
41
20
-108
15
3
54
26
-62
13
-21
1
21
63
16
46
-31
29
-21
-38
-19
-2
-67
-149
9
48
14
-30
20
0
52
-8
-60
5
-4
21
45
14
-16
-50
37
19
-63
-88
-34
4
-17
2
-7
-15
1
-12
34
-7
-33
2
8
12
-23
-37
-18
-55
-2
-16
21
-19
-8
49
-6
34
4
31
50
25
-7
-63
-15
69
-13
-11
-42
-25
19
0
-16
-41
-43
0
25
-21
-12
22
28
6
14
4
-58
0
-8
0
-8
-5
13
0
-9
-35
42
35
-23
-4
-34
2
-26
-14
-15
-6
-13
-11
28
18
4
18
23
18
-11
-28
39
-19
8
-27
-18
-5
-14
1
-2
-62
45
-20
-3
36
-29
40
9
21
12
0
4
-7
-1
56
-32
-13
-29
-31
8
-73
26
15
-9
1
3
23
51
30
29
23
7
30
42
-16
34
-27
-29
-8
-43
-41
-28
-21
-30
-35
-22
-47
34
-15
-44
-30
-48
-35
-7
-46
37
-15
-47
-10
-54
-12
-27
-52
-30
4
22
-19
26
0
9
6
-16
19
-13
-23
9
-2
-11
21
12
-2
16
-10
-7
10
6
0
19
-16
44
-27
-9
21
25
-37
-5
-12
18
-49
-39
-34
-10
-55
-46
33
-39
-38
-25
-9
40
12
-13
-17
-25
-10
-8
-29
-25
-54
-14
-49
-35
-6
-41
-52
-49
13
-10
-17
-12
-22
-27
-45
-10
17
-41
-51
-46
-20
-38
53
-51
-19
-2
-30
-5
-16
-53
-15
-15
-17
30
12
-48
-29
-30
25
-41
-39
22
17
-15
-24
-33
-14
-18
-11
40
54
41
-7
-43
-8
-3
-12
-40
-19
-5
32
-9
51
6
-51
-42
-39
-28
-5
-47
-6
-18
-7
-24
32
-5
-38
39
40
6
14
-48
34
33
-2
-39
-50
-18
3
-48
-44
-8
2
37
4
8
-19
22
32
-15
-17
-34
-55
-5
-16
-8
-20
-12
-36
30
-13
-55
-15
-14
-48
-51
-42
-19
-36
-15
-15
-49
54
15
-48
-6
-44
-29
-33
-22
-45
-46
-52
51
-44
-6
-38
-52
45
-50
-17
-31
-41
-19
-25
-35
-19
-46
52
13
22
51
-18
-51
6
-15
-46
-8
-39
24
-27
-17
-35
22
44
-42
4
-23
6
-36
-47
28
30
55
-47
51
-30
-8
-32
-22
-44
-37
-21
-25
-43
-23
-53
27
-52
-44
-46
-43
42
-12
-22
-24
-43
-37
-6
-33
-34
-11
-54
-13
-13
-28
-10
-32
21
24
-35
40
-24
-41
-29
-38
-50
-24
-31
-45
-54
9
-1
5
23
31
12
12
-25
44
48
21
-33
-37
-9
-37
-2
-27
1
-37
-24
9
-5
-17
-26
-34
-44
-35
-40
-49
-52
-22
-44
-51
-41
-44
-33
-50
-52
-51
-42
-40
-7
-20
-22
-24
-32
-14
-10
-22
-18
-27
23
3
21
-9
18
-22
13
5
20
21
24
10
-16
1
9
-4
15
-1
-16
20
2
2
-12
9
0
16
-5
-39
-51
10
-4
15
12
20
18
0
12
33
17
25
-11
15
14
-5
-8
0
21
-24
7
-11
0
-23
9
10
-55
-8
-53
0
10
36
63
46
50
-30
51
101
28
-10
-24
-5
0
-21
-5
-23
27
26
23
-16
19
22
-9
-21
-37
-25
25
29
57
39
9
14
36
16
8
18
-2
5
-16
28
3
18
-28
-41
-32
25
-6
7
-8
38
58
9
18
35
66
26
34
77
34
-10
11
4
22
12
18
30
42
44
19
37
55
2
-28
-49
-16
19
-23
-31
-6
1
-9
4
33
36
10
14
19
61
50
45
16
67
2
28
0
32
63
7
-28
-15
53
-49
-56
-7
13
30
-75
15
58
24
22
-35
24
-23
-18
-2
-69
-70
-37
-53
8
-11
7
-41
25
75
18
14
19
50
63
46
46
41
21
7
-28
-13
-4
-23
-13
-38
43
49
16
31
-28
-31
47
15
30
-28
-42
18
38
23
-24
-26
25
-55
-39
33
56
43
-15
-9
20
-22
21
-25
-55
49
19
-11
14
41
-17
-41
-7
21
53
-28
-10
42
-10
7
10
45
8
22
7
9
28
51
79
-45
17
61
47
23
-40
19
3
-19
-1
11
51
11
-26
28
39
-20
9
24
-55
-63
182
154
178
-32
-85
106
130
110
27
-120
24
-29
-51
13
-42
-16
-92
-118
32
51
49
-24
-51
52
123
-25
18
74
-17
-48
51
37
26
8
-7
15
-2
-28
-16
29
-7
-25
5
21
40
-25
-9
-62
-29
-2
28
32
41
39
10
-22
-3
4
18
42
-3
-43
2
35
18
-7
7
8
14
5
-2
13
23
12
7
-39
-116
-86
-69
10
10
-72
4
35
40
37
-8
42
-6
33
132
68
4
23
36
86
12
14
29
2
-24
-9
-1
0
77
-27
-6
15
53
75
31
26
6
12
-11
74
69
24
6
-50
2
8
12
-11
-48
-63
-59
-71
39
-24
-41
-16
47
80
101
-10
40
11
4
33
-3
7
-21
-15
-18
26
40
80
4
-23
90
33
1
21
33
34
26
-21
-30
-55
-16
22
18
6
5
-121
-53
14
37
38
-28
13
54
29
28
42
-11
-4
-90
-52
-60
-28
-100
4
-59
32
73
82
-21
-75
154
99
-31
-91
-96
-186
-90
-81
-74
-28
9
16
-17
-2
-22
-7
-45
-35
6
17
39
25
47
25
-75
99
99
54
-68
-42
35
33
-1
-71
0
57
64
-54
-58
-27
-114
-6
-11
4
62
-40
51
93
7
2
49
104
62
-53
0
5
-30
-28
13
15
11
32
-17
-58
0
37
8
44
19
3
-9
15
11
-1
-33
-27
-20
-3
-52
-66
7
75
37
-35
-25
-80
-32
45
1
30
90
50
129
-12
22
76
-50
42
18
-47
-88
-9
-3
-19
-46
43
84
12
-47
-58
8
57
-56
-20
-61
-95
-46
-71
-13
34
-109
18
-28
25
43
14
95
-35
-30
-76
-83
-107
-51
-24
-45
-22
-14
-15
30
-17
22
16
-24
-29
6
16
18
-53
18
4
14
41
11
-10
-4
45
-35
8
-18
-5
-16
157
-13
-26
-56
141
19
-46
-14
30
-45
-19
-5
15
15
-54
4
-32
-76
-26
22
28
-56
25
15
119
96
8
28
78
30
75
-52
-48
5
-17
20
-41
-6
64
-53
-2
-8
-24
-32
66
-9
-63
-109
-94
2
-132
-90
122
152
153
84
-25
-5
113
93
76
-108
-64
138
-69
-58
-84
-21
96
-48
-61
-82
-48
-3
120
129
34
-1
151
76
105
-62
-46
44
8
1
-35
-29
119
-41
-72
-8
-15
-13
55
-18
-78
-49
-42
26
-47
-30
-32
48
-25
-7
29
-52
-8
0
-9
-15
-2
-64
36
-20
-67
-44
-63
1
50
62
-46
-48
23
112
-79
-114
9
142
36
-38
-60
-45
183
-28
-13
-12
15
191
19
-49
21
50
34
-201
-43
7
47
115
1
0
-139
-87
-64
-75
31
-118
-47
21
8
19
-50
-125
149
15
-102
-45
-119
-79
-112
-132
-53
36
148
65
15
45
-62
168
-17
216
164
-21
33
-40
207
17
-67
100
9
85
7
-51
198
38
-102
-39
99
2
-36
-23
-57
15
49
12
71
18
-38
43
81
50
11
29
-105
-21
-9
-30
11
-40
35
42
-59
9
-16
-43
-12
-6
-33
-21
-23
-27
-20
-34
-30
-15
-41
-5
-35
-2
-32
-16
-23
-29
-17
-11
-3
-41
-31
-47
-25
-9
-27
-36
-40
9
-51
-34
19
-48
-29
-43
-33
-26
-42
-52
-38
-25
-34
-30
-19
-26
-17
-10
-50
-19
-54
-47
-43
-32
36
-44
-22
-18
16
39
-36
-43
6
45
-11
-55
-18
28
-26
-19
-44
-16
-2
-35
-43
-30
-14
-52
-53
7
0
-47
28
15
2
-35
-31
3
-46
-30
-29
-38
-36
7
25
-10
-33
-14
11
49
26
-18
31
-31
29
57
-41
42
-52
46
-23
-44
29
-48
0
-12
1
6
13
-2
-38
-42
11
-42
-29
12
-24
49
-32
8
-16
-7
9
-51
45
-41
-14
9
14
-36
-34
-35
34
10
-25
-19
14
22
-6
6
48
-16
19
13
21
53
-2
-27
-20
-17
27
-7
2
-38
-35
29
10
11
-6
35
35
-18
-5
-7
-13
30
-40
-30
-6
21
45
1
-27
-57
16
39
-39
-54
18
27
-36
-29
47
30
-32
-22
-17
37
42
-31
-17
28
39
38
-28
-5
17
-1
36
-3
37
18
-1
-39
-14
36
30
-19
-10
-29
-42
-26
-39
13
4
37
20
-33
-29
29
-33
37
-15
45
-28
-30
35
-51
-21
-39
7
26
-19
-6
-24
-33
50
-7
14
-26
-28
31
-8
-30
0
-1
12
-54
-40
2
28
-2
-19
10
11
22
-36
-2
44
-9
-11
-4
55
-3
-36
-10
-42
-35
31
0
-21
-42
-57
-18
-47
9
-24
-37
-17
-54
-28
-19
4
-57
-57
-41
-7
16
-14
11
-32
-16
-20
-3
-41
-11
-43
-57
-14
-46
6
-20
-13
-25
-16
-17
1
-34
-18
-12
-19
-12
7
-6
-7
-27
-10
-42
-14
-22
0
-8
-27
-45
-28
-38
-26
-19
-15
-40
-41
-44
-36
-38
-33
-38
-28
-41
-38
-19
-42
-5
-4
-43
-49
0
-53
-8
-43
22
-37
-16
-17
-2
-33
-10
-38
-29
-12
-5
-39
-19
-11
-9
33
-23
-29
-34
-15
44
-8
-37
-25
29
-40
-24
-31
-48
22
-51
-46
-30
-54
-15
-6
-47
-18
-20
-32
-63
-18
78
70
-30
-10
73
49
13
-67
51
11
18
10
3
0
24
-16
-63
45
19
-41
-20
-61
-30
-42
-10
37
90
-10
60
50
51
-4
-10
34
16
-27
-54
10
-32
1
-22
-56
41
-3
-43
-30
-27
-56
-51
-33
25
86
-51
-89
-6
19
43
-30
-36
31
0
-35
-57
59
47
0
-55
30
37
4
-43
-81
-73
-94
-27
-26
18
-79
-6
-3
27
-15
-40
4
27
37
-50
-34
-13
41
-49
-55
19
-1
-20
-17
-55
-89
-72
-59
-21
15
-56
-44
-36
-13
15
19
3
-9
4
-27
-36
27
2
-2
-69
-36
0
13
-28
-67
-26
-45
65
12
36
-37
-69
35
12
46
-46
-30
11
1
-6
-50
66
20
-1
6
28
97
30
-39
-45
-36
43
-26
-1
6
-8
-38
7
-42
-8
10
23
26
-32
-21
33
-43
43
-37
-35
-52
-19
55
-54
-5
-45
-87
-80
-3
70
-53
-60
-30
29
35
-26
-17
21
35
-18
-58
-3
41
50
-1
-34
49
39
-38
-46
-79
-22
-45
-87
35
-39
-33
-74
5
22
26
-19
19
-9
-59
33
28
5
18
-96
15
-10
20
-36
-74
-128
-133
-33
4
-81
-85
-113
-50
-7
59
-166
-50
-14
12
9
-61
9
-4
-22
-106
9
9
66
70
-6
-79
-55
-101
-70
40
-71
-103
-87
9
10
-65
-60
-1
-2
-20
-23
-1
38
10
-23
-21
-2
-14
-51
-36
-87
-28
-8
-25
16
-52
79
42
19
42
32
44
16
42
-35
6
0
-30
-6
-33
18
3
-30
-54
-72
33
113
210
-3
22
32
-26
31
0
21
-15
-32
25
46
50
-51
13
77
18
23
-34
102
64
15
-33
-56
-31
0
71
27
-43
4
30
63
-48
-18
60
-7
22
-19
28
31
-4
-25
-28
46
25
-22
-9
-66
28
34
58
0
116
42
-42
-40
-52
93
-23
-53
-54
-49
39
-38
117
-24
-43
48
8
49
-17
33
3
16
-9
21
-11
-26
-3
13
51
-7
3
-12
-29
-14
11
-29
25
3
24
-43
-28
1
-8
23
32
26
-8
-9
15
-27
-17
2
16
17
-68
-53
8
24
-8
-20
-17
-14
30
0
17
-19
-25
-10
0
19
-33
-39
-11
-37
-28
7
-6
-29
-6
-64
-55
-22
-6
-27
-46
-13
10
-3
14
13
27
-53
-52
24
-13
-22
-40
-11
-11
-48
-43
-18
20
2
-30
3
-17
39
27
-9
-22
-25
14
-65
-20
4
-19
17
-5
-15
-2
-55
-42
-21
-26
-5
-46
10
-3
-47
-34
13
1
-21
-34
-44
36
-2
-21
-28
-24
28
22
-2
-14
-3
-63
-39
12
-12
13
-42
1
-25
-13
12
-2
-18
-2
-75
0
-6
5
-37
-16
5
1
13
-15
-39
-36
-11
-35
-15
-18
-44
-16
23
9
-1
-4
16
23
57
36
33
-4
68
-27
-4
26
-24
-14
5
2
-6
-3
8
18
-3
-3
-10
24
17
6
51
-18
29
1
6
52
51
-14
46
10
40
39
-1
29
37
41
-28
-35
-32
-15
11
-59
-18
7
18
-32
-27
7
20
-18
8
-13
-6
33
-12
-8
28
47
-19
-29
-15
-24
-10
0
15
15
-13
-10
-8
39
52
-1
-70
-55
-16
30
27
-64
-47
-58
3
4
-25
-22
-32
-3
-37
-2
-2
-40
-30
-47
24
10
-23
-52
-29
-23
-7
27
-76
-3
-7
-18
-10
-40
6
-12
-13
3
4
-45
-29
-22
-12
-25
-48
-41
-5
25
20
-61
-34
-31
5
-18
-40
-68
-91
-33
-10
-26
-48
-24
-29
-33
-40
4
3
21
43
-30
-61
-27
-5
40
-4
-42
-52
-10
-37
29
4
-8
-42
-18
31
16
3
-24
-13
-17
-51
-32
-72
-47
0
27
43
-21
-12
-25
51
35
-39
-4
-18
69
57
-34
-40
-69
8
-38
-17
-45
-32
9
0
-43
28
-11
6
33
1
37
24
48
-49
1
15
50
61
-30
-18
6
49
22
-2
4
0
-38
-30
-24
4
-57
4
-1
40
-7
37
26
23
19
5
34
5
61
-31
9
18
13
-6
-5
-8
-29
-65
-45
-20
-49
-25
-19
-11
-16
-72
-34
-14
27
16
-53
-40
-57
-9
13
7
-35
-54
-7
35
-21
-44
14
-63
-47
57
-7
-32
-51
19
38
-53
-37
-44
-1
0
-19
34
-8
-1
-3
-3
62
44
-22
30
8
-36
-16
-13
0
1
-5
-46
-37
-2
-58
-41
-13
-11
-11
10
12
-25
0
32
2
27
15
14
30
-29
-37
-48
8
19
-15
-13
-71
5
7
-27
-39
-29
-5
16
-18
-74
-35
-4
-11
-48
-19
11
-1
-11
-21
-7
-45
0
35
10
-38
-68
-14
45
-43
-66
-45
-6
0
-28
21
-6
5
21
-48
23
-26
-5
6
4
12
22
-31
4
-40
-16
-63
-17
45
-24
-23
-60
30
42
-58
-1
-68
14
13
-25
16
-44
4
24
-13
13
-32
9
-2
12
19
-41
0
3
13
-23
-23
51
34
-6
-36
8
32
-22
-30
-8
55
11
-29
-26
-40
21
38
30
29
-22
55
31
-18
-45
-55
-43
42
-32
-15
-6
-26
9
50
39
14
42
51
-46
-54
-2
8
-4
-11
41
-11
-59
-51
14
0
3
-34
14
17
-5
-45
-34
15
34
-47
-13
9
21
-12
-24
-48
36
0
-7
-16
-53
3
29
-37
-14
-39
15
16
5
-45
-67
-35
-15
-29
-48
-19
26
52
41
22
-7
-27
51
-17
-111
-3
-2
16
-7
-116
-49
-8
28
7
-47
55
86
28
15
-91
-64
19
47
-1
-117
22
35
19
-57
14
-42
7
-3
-7
3
-62
20
60
7
-5
-23
20
10
0
-46
-52
22
0
18
4
-20
26
-5
-4
-35
-74
21
-18
-25
-12
-38
-32
-62
-16
4
-20
-19
-11
48
-5
44
14
17
47
21
-4
-26
-2
70
13
14
2
-22
31
16
11
50
-18
31
3
-9
-13
33
36
0
12
56
-4
14
7
-1
-48
3
26
-12
-4
-50
29
36
-37
-13
-37
21
-8
8
-38
-31
31
21
4
0
-14
-3
24
-20
17
8
57
18
73
4
-69
10
-13
22
30
-56
30
19
-6
30
-14
71
51
-13
12
-28
42
35
6
46
-88
5
13
-37
15
-22
-15
-2
-9
-11
-5
-27
-5
-27
71
40
32
17
14
-6
33
7
-15
-18
96
31
11
15
-11
36
26
39
25
-42
-11
7
6
-2
-18
-11
-19
27
53
36
-36
-78
1
46
33
-48
-51
-8
11
23
-9
-8
0
50
6
-5
3
-27
3
-58
-14
-11
1
-2
9
-27
-71
-28
-17
-70
-37
31
33
44
9
35
39
22
-12
4
10
14
28
-4
6
-95
11
-21
20
27
12
12
12
47
15
-4
12
11
-8
4
31
32
70
-15
14
29
19
46
14
-14
14
25
52
46
6
30
40
36
49
-20
-17
-4
31
39
-22
43
57
0
-13
-30
65
30
29
4
23
24
14
61
4
14
68
91
86
25
-32
-31
62
65
-19
-17
-23
-10
23
-53
-81
7
-9
-25
0
-60
-41
59
-69
-3
-6
-22
16
-32
13
43
47
44
32
-46
7
50
43
20
-8
13
-56
-6
50
-25
55
-42
-15
12
-25
44
9
7
11
-37
54
-46
16
8
39
37
-41
-6
3
-13
-18
46
9
-12
-10
-35
-3
-6
-30
-12
11
15
38
-23
37
23
-35
-10
-50
-6
65
-1
0
-32
53
70
-14
-39
3
62
-1
-15
-17
-16
-13
-101
42
56
35
-1
5
-198
-144
-31
150
143
-82
-31
-13
69
103
-102
-66
-122
-41
28
-64
-16
-71
-72
-156
-5
-20
54
21
-142
-57
-56
3
26
127
-74
-5
46
42
45
-41
-13
29
50
-8
-14
-78
-27
-47
-75
41
46
-11
36
7
4
16
-29
5
41
-11
28
-23
-22
-28
-3
-3
-19
4
-64
58
62
-18
25
-38
76
46
65
24
0
78
118
93
-33
-18
95
110
22
-17
-24
60
99
16
16
27
-63
55
44
46
10
-110
-29
23
59
51
28
7
-6
28
-85
71
41
48
-25
-45
31
39
17
18
-5
7
-4
-15
12
11
-8
-27
20
29
7
83
32
1
-91
-32
56
30
-41
-100
-104
56
27
99
-4
-68
36
30
78
64
-7
-25
-49
-72
16
37
-38
-61
-37
-14
65
-49
-26
56
29
10
-38
-4
-22
14
-35
7
58
30
30
-28
13
11
19
-27
-22
82
38
25
34
28
41
18
2
-36
19
24
31
-26
21
24
-30
-23
-9
59
7
8
21
21
38
1
-24
-35
29
27
-29
-12
5
-44
-47
-19
-40
-11
-26
-7
-19
-94
-73
6
35
-13
-55
-54
-25
37
-26
-59
-10
4
-44
-50
45
47
38
-46
-46
41
50
-17
-20
34
-11
-40
-59
6
8
-46
-40
-1
8
-14
23
40
14
-12
25
35
29
4
-7
-3
45
20
-11
-38
19
-13
-5
5
14
-12
-38
-18
21
-12
-2
55
-2
-3
27
-41
61
0
40
4
3
-1
8
-51
10
37
-7
-16
-44
0
11
-55
-29
23
-18
-21
-28
-40
0
-36
-67
0
15
16
-58
-27
39
55
6
-11
24
73
-1
8
33
27
15
26
48
10
8
-14
13
12
-41
36
5
13
18
-54
13
-47
-45
6
9
45
38
-36
-43
-35
6
8
-21
-24
-54
21
-21
-15
-44
-9
-16
-29
7
38
33
-12
46
33
11
-37
-31
4
34
-20
24
14
-15
-21
-23
7
7
-34
-48
-64
-46
-11
21
3
27
-4
41
13
-28
-35
6
-23
-5
-38
-73
-61
3
-26
-14
-57
-57
-13
-68
-21
70
78
-68
-47
-31
-71
-84
-64
-62
-75
-48
-20
-11
-12
-55
-58
-71
-162
16
-22
-65
-54
-65
-67
-66
-59
-22
8
-57
-57
41
49
24
-24
-38
-9
27
-3
-6
-69
-82
-37
-15
-47
-33
-51
-24
-3
30
11
5
-11
-4
48
-33
-23
30
5
-27
-67
-71
-38
-11
-27
12
-41
-49
-3
-13
-11
-41
-32
-13
-43
25
-14
-34
-51
-11
92
42
35
-22
50
86
64
6
-25
70
96
63
-7
-14
96
62
74
41
11
-5
-9
0
-14
-16
65
69
-15
-9
38
26
35
-27
2
55
6
42
38
22
38
-28
14
23
10
-2
22
-3
0
-11
-23
1
66
51
10
-34
26
73
55
62
45
2
68
101
77
34
0
46
69
43
21
-16
19
31
16
-2
-32
-38
-24
-42
-15
-61
-44
-30
-39
-29
-57
9
-2
6
-62
11
-28
-13
16
23
-16
-17
-20
-48
-36
-50
-30
-52
-30
-19
-18
-6
-52
-52
-20
-15
-45
-24
-27
-35
-23
-49
-22
-26
-32
1
19
3
-18
-22
-16
19
0
-11
0
14
-1
-15
-1
1
14
2
10
4
-9
9
-9
-20
16
22
18
-28
-22
-52
-17
-28
-17
-39
-21
-36
-8
-51
-37
-40
-33
-19
-37
-14
-12
-33
-36
-6
-40
-35
-8
-51
-50
-19
-46
-55
-46
-35
-54
-46
-28
-5
-15
-44
-48
-47
-8
-37
-42
-51
-29
-22
-44
-29
-27
-19
-51
-12
-31
-15
-23
-11
-14
-14
-16
-14
-27
-45
-38
-34
-10
-33
-39
-49
-18
-51
-48
-26
-44
-45
-54
-19
-47
-14
-16
-9
-39
-20
-49
-13
-14
-16
-31
-36
43
-46
-47
-18
-24
-51
-40
-40
38
-19
-7
-23
13
-12
-23
-31
8
-15
-47
-32
-33
-17
-18
29
-8
4
-23
-5
33
-20
-44
-34
-43
-41
-23
-17
12
-48
-32
-20
-45
-49
-50
-21
-21
-9
-14
-15
-24
-13
-21
-39
-53
-24
-7
-53
-38
-45
-20
-13
-6
-36
-12
-33
-53
-29
-27
-53
-5
-17
-25
-55
-43
-49
-35
-9
-11
-31
-8
-25
-28
-31
-14
-53
-41
-28
-30
-11
-25
-6
-22
-5
11
-19
-10
-22
-37
9
-24
-28
-55
-52
-46
-45
-45
-41
-52
-34
-53
20
-26
-13
-40
-32
-50
-13
-42
-48
-44
-5
-37
-32
-44
-8
-25
-17
-44
-28
-41
-37
-33
-31
-19
-33
-51
-22
-14
-50
-53
-12
-16
-54
-44
-9
-28
-27
-25
-54
-25
-18
-48
-20
-11
-26
-23
-52
-20
-51
-16
-51
-45
-55
10
-4
-13
-18
-30
-9
-9
18
-5
-8
18
-11
-19
-18
-8
-24
-38
36
-5
-12
13
-17
24
-9
-22
-52
-42
-50
-36
-9
-41
-46
-8
-24
-48
-50
-9
-38
-35
-13
-46
-8
-40
-41
-45
-23
-37
-10
-40
-39
-1
15
20
-19
2
11
-14
8
15
-8
7
8
-9
-15
-5
31
0
-16
6
1
-24
-1
25
31
-8
-21
12
5
-32
-3
-25
2
-21
-13
0
-1
3
-6
7
22
-9
-18
14
14
-25
-7
7
-9
-22
4
-120
-30
-25
23
18
-84
-36
-6
20
-45
-63
2
34
9
-36
-6
36
11
2
-45
74
0
-29
-28
-102
13
3
-3
-9
5
-36
-71
-34
10
-46
-9
33
14
68
7
-2
-2
2
32
-3
-11
-22
-23
-36
-62
-52
-51
16
9
20
16
-37
-15
35
4
-32
-73
-7
24
-39
-52
34
20
-22
-14
12
13
-13
2
-76
51
-2
-1
22
-28
-17
-65
-32
3
-50
-56
-59
5
21
-47
-17
1
61
3
-37
14
-18
10
43
-4
140
55
-23
0
-13
65
-2
-66
2
-35
-48
-82
1
32
-60
-47
-52
19
55
-49
-20
-35
7
9
-28
-21
-10
-19
3
18
-11
-10
-40
7
-3
35
0
3
23
12
11
31
10
-60
-40
6
46
0
-72
-67
-19
43
19
-19
-8
21
6
45
6
35
-7
-55
25
-38
-52
-17
-54
52
-42
-32
-23
25
22
-31
-49
-10
0
0
20
10
-28
-31
-48
22
33
-38
-37
-10
30
-47
-31
-41
6
5
-48
-19
17
34
-43
-57
-4
59
43
-6
-57
-5
36
46
-27
-6
-62
-3
-24
-52
0
-1
18
18
1
45
-26
13
44
38
41
116
36
-10
-44
-182
70
125
93
85
42
16
-15
38
-49
-51
-20
-19
-112
42
52
40
57
49
86
155
12
58
32
-74
-15
23
68
55
-5
-18
-19
-31
2
-42
-26
-42
-2
28
15
-22
-6
57
7
-40
23
-4
21
35
4
13
-53
44
-26
3
-10
-48
-18
-55
53
-30
10
-1
-23
26
12
6
-38
-10
59
34
-16
-88
34
64
0
-6
-56
-8
52
27
-17
5
26
6
-36
-74
-68
84
-19
-26
47
108
6
2
-45
-22
-52
24
24
12
0
-15
41
25
13
-66
-1
33
-27
-16
-9
24
8
17
-89
47
10
10
20
-52
-9
33
45
20
68
-5
7
38
54
59
31
2
18
24
54
19
40
1
-39
-13
42
8
82
36
-73
46
-29
6
30
1
48
-49
19
0
-50
-53
-8
13
-6
-30
-13
-18
-1
59
-7
-32
-20
20
-1
-3
18
31
10
-42
34
89
38
1
-5
37
81
35
-43
-19
40
-7
-26
4
15
2
-4
6
22
-25
-2
-28
1
-7
-8
-3
10
55
32
0
17
0
16
-26
-43
6
24
-28
-29
-18
-17
-21
-2
18
-27
-18
20
44
-8
17
6
-18
-3
34
-53
3
39
5
-18
-49
28
32
-9
11
18
-4
28
16
20
-12
18
-39
-7
-9
10
-11
13
51
-5
-37
15
77
69
20
9
-4
52
9
-47
2
30
-19
4
-33
-16
18
-83
-42
-27
-4
36
-25
16
26
-40
30
69
64
42
-29
-5
55
36
-38
-7
34
26
11
-28
-15
10
60
45
35
32
25
23
25
20
-36
19
1
-1
-39
-48
2
-11
-46
-19
-9
19
-10
-5
13
36
17
24
5
31
9
17
7
-54
45
49
-12
53
36
3
34
46
7
41
-15
41
36
16
38
49
14
-18
3
20
1
12
27
-27
-6
8
-41
-19
35
61
25
-39
-15
35
35
-12
0
24
30
17
-9
26
2
-3
-37
-38
21
20
11
-32
-45
-1
28
20
-13
-9
17
39
30
21
13
35
18
34
20
-14
-7
-32
-85
-101
-190
-124
63
-57
-67
-47
21
141
2
6
40
90
141
-4
12
85
61
66
10
2
66
33
-27
-34
-53
-35
16
43
-37
-35
-15
42
17
18
26
-37
11
15
43
7
19
-5
30
40
-25
16
-6
-31
13
-40
-43
-17
51
25
-26
9
0
-3
40
26
29
-10
0
40
28
25
5
24
-10
4
-8
-4
-13
50
114
53
-2
9
-9
58
6
-43
4
-40
-27
-24
-52
-18
-44
-48
-25
2
15
-48
-50
13
21
21
13
42
20
-13
0
21
43
-15
-23
36
35
35
20
11
4
34
-15
23
-9
46
-17
0
1
-28
49
30
38
58
30
-7
5
23
3
41
29
-16
-12
-40
12
30
26
14
-40
1
4
21
9
-2
-14
14
-50
17
-63
-43
4
-32
62
-13
-35
15
28
9
-16
-3
-3
-10
6
-25
-52
7
-43
-19
-18
-24
5
-59
-23
-9
-16
-1
-48
-20
6
-22
-14
-19
-70
-46
-24
8
11
4
-25
18
14
-66
54
116
85
58
-55
5
-9
22
-56
1
-12
7
-89
-64
21
-12
-51
-77
-17
25
4
-19
5
-1
28
36
56
97
77
-5
20
-27
-19
-41
9
10
14
34
1
-46
-8
33
-1
56
-69
-25
-8
31
-5
-30
-34
10
53
26
-11
-16
26
42
46
-42
-2
13
-20
25
9
32
-16
-34
14
30
15
-56
-41
35
36
51
-25
-14
25
-74
-29
43
38
18
-150
-43
-8
22
59
-51
53
17
-58
-17
33
9
-41
-40
-15
67
10
-68
-24
16
-19
-57
-74
-84
-63
9
-27
24
1
-44
-6
-6
46
21
48
-7
-36
-5
55
17
-77
-59
73
41
10
-46
5
35
46
39
-29
30
28
22
48
25
54
-35
29
34
-48
-41
41
-30
13
33
-24
-5
33
11
20
-32
-25
7
-38
27
3
-4
13
45
-22
-14
-2
26
28
-40
-40
0
7
42
26
-14
-1
33
51
-5
6
78
84
32
-18
-2
36
43
55
-7
9
39
3
-38
12
6
-37
-76
-114
43
-19
-27
-72
-61
-48
28
28
-25
17
-45
-50
50
57
-22
45
0
-23
43
93
6
22
91
-87
-54
24
52
6
-75
-47
-10
-5
91
55
-56
0
52
33
57
64
9
0
10
32
33
28
-11
-7
-51
-56
52
7
-52
-51
-43
13
-9
48
83
82
-39
-35
-29
-5
17
-66
3
-5
-57
-37
-11
19
-1
-97
-19
35
56
-15
-33
-32
90
-110
-148
-123
25
106
-42
-9
33
22
83
-32
-2
35
44
2
-13
-39
76
58
-77
-79
11
71
57
-20
-33
-36
-57
-42
-22
13
31
-23
-26
18
-14
0
-18
30
-41
-33
-47
43
34
4
11
3
14
50
-27
-113
-117
-111
-101
3
-14
29
-31
-36
23
79
90
-7
-27
-11
1
6
73
30
-24
-20
-6
42
72
-47
7
-68
-32
14
-46
-26
-47
-66
-78
95
20
-40
-38
-9
85
59
0
2
9
35
42
18
59
63
0
24
15
-8
17
13
31
57
40
10
49
36
5
-23
24
20
25
45
-15
-7
-20
-9
21
-22
-27
-1
-10
-1
-20
30
11
11
49
55
13
18
10
-4
5
26
13
-2
5
-3
9
-25
0
14
-38
-40
73
64
28
13
46
-56
-24
-17
-21
-6
-15
17
-16
-46
0
-21
8
33
-19
15
-16
-18
27
2
27
-35
33
-11
-34
-48
-28
58
-7
-39
-23
-24
13
24
8
13
-2
1
-3
-10
18
4
-1
6
-39
-19
-59
-7
-28
-23
-7
17
25
-24
-21
-42
7
42
26
0
-12
-5
19
16
-3
0
26
37
29
-20
18
63
85
78
62
22
-30
23
24
9
16
5
-25
-41
-43
-41
-13
-15
-17
-5
-30
-24
-51
-11
-20
41
-20
5
-49
-36
11
14
4
-33
23
-43
13
26
16
17
-35
26
13
21
12
-1
-46
-26
-34
25
46
-27
22
50
9
21
-11
24
9
-3
2
-35
-20
32
-48
-11
-28
22
1
-4
-4
-1
1
10
22
41
48
-21
-71
-59
73
0
-41
-41
-49
63
27
51
-15
31
36
29
11
21
10
30
34
24
-27
6
37
-74
-85
12
78
155
-69
-109
-132
-7
153
6
-82
-87
10
218
16
1
3
-24
92
-19
-8
-64
-42
-8
-15
-56
-15
15
97
6
-36
-102
-23
43
-4
21
-24
-26
16
3
-26
-21
-42
48
-3
-2
-26
-3
5
7
-54
-49
-62
0
50
20
-8
-57
-33
-2
3
29
-19
-45
-14
20
-25
-7
-5
-8
28
-8
-18
-1
23
153
147
2
15
-1
61
51
-28
-42
-70
-80
-52
-32
-33
-18
-43
-75
-30
-14
-39
-64
-3
9
9
7
58
30
-21
-11
-15
10
17
-43
4
18
12
0
-38
-16
34
19
-7
4
38
7
-7
-17
-49
0
29
100
55
43
65
32
70
40
25
-24
-22
-7
-33
-25
-30
11
26
-17
-12
-26
22
43
20
-59
-15
-32
27
-21
-48
-45
-31
46
47
44
48
20
-29
-21
-10
-18
9
6
-13
-2
-44
20
10
-39
-49
-5
-12
-6
44
28
-15
-38
24
36
5
-49
17
74
68
31
0
14
55
44
40
23
-69
-46
-8
14
21
-5
32
10
19
-16
-11
-31
0
-57
-53
-52
8
8
-1
-23
-26
29
55
33
27
-38
-31
-4
25
30
-33
18
39
-35
-49
-20
0
40
-18
-31
25
46
78
41
-3
-19
48
2
5
0
-16
-11
-5
16
-19
-12
22
43
17
28
23
39
4
-6
25
-18
-12
39
-13
-15
1
42
52
-1
15
37
48
49
49
-19
-3
47
45
16
-7
29
-8
28
33
6
-34
-37
12
9
7
-61
-22
33
2
8
9
80
85
48
3
-24
-4
-13
-80
-17
-18
6
23
8
26
3
12
86
46
3
19
85
7
27
-14
-43
-88
-52
0
30
-30
30
5
28
2
-31
9
49
44
33
-28
-55
41
23
50
-10
-34
9
-49
7
17
23
54
-43
-49
12
-3
39
21
2
2
-21
-12
0
25
-48
-6
-6
2
8
8
30
10
-2
-14
37
45
-5
23
21
39
29
-23
-16
19
16
54
42
7
24
41
-2
-34
-16
11
3
-14
-75
-64
24
19
18
-18
-10
75
4
-5
15
-28
-25
30
69
3
-99
-103
-72
-50
-91
-23
-103
-42
-81
-130
-39
55
-49
-85
-107
-24
38
6
13
-14
-1
-5
39
30
8
15
11
21
1
-11
26
38
-38
-42
-96
-70
38
-52
-13
-20
-29
43
30
2
32
59
12
3
-10
-28
41
18
-18
-48
-57
-32
-29
-10
-15
6
21
-9
41
40
84
63
3
24
43
4
-49
-18
78
2
16
12
-6
91
29
36
34
18
118
95
21
12
0
43
-69
-49
32
-13
20
18
15
2
-29
-29
27
7
34
7
33
75
-16
-1
-3
68
75
1
-18
-3
20
2
-13
-1
-11
-6
37
23
38
9
9
51
79
92
3
-11
70
57
107
15
11
93
39
33
-2
42
39
-17
-33
-27
0
-14
2
21
12
-48
0
19
-69
-72
-68
-10
26
-28
-51
-76
-14
1
31
30
-51
-11
10
-8
-22
-11
3
7
-43
-3
-12
14
13
16
-10
9
-2
-1
-21
-25
71
-11
-69
-47
-23
-80
-63
4
-25
32
8
41
-14
-6
17
29
22
36
23
14
22
-14
13
-9
-33
44
-5
-8
-40
24
28
27
9
12
47
29
-5
-29
-42
45
-40
-22
-16
69
65
-61
-30
38
24
-5
70
48
12
-48
0
-23
-64
-43
-18
23
-39
-6
15
-8
26
-33
-23
17
30
30
28
27
15
-10
-2
-15
-17
-14
-30
-8
37
19
2
13
2
-47
-29
-5
-12
59
-105
-49
-3
-20
48
-1
50
49
4
-11
2
3
8
-25
0
61
-6
12
-19
-17
17
50
-19
-12
41
-27
-3
-49
34
47
-64
-42
-24
42
16
-7
15
-33
-16
-8
-44
-63
-31
1
15
-24
-5
4
4
33
-37
23
20
38
-44
-33
-32
-36
-50
-21
-26
40
-53
27
46
-43
-29
43
11
53
55
40
20
-18
27
50
-15
2
17
89
-1
-23
-18
70
62
-24
-3
7
-22
-44
52
-8
-55
-19
30
-18
40
66
46
-58
0
-14
-31
7
-9
31
28
8
42
11
21
51
45
35
-17
-32
-56
-35
-18
-9
-3
-26
-89
-103
-31
-28
-30
-52
-13
-129
42
-27
-64
89
129
51
75
-2
87
149
-8
17
-27
-72
-45
10
34
26
-29
-72
23
28
-33
-40
26
-15
28
-17
11
44
11
87
45
-19
-19
39
-50
-51
-38
15
-10
-14
-5
19
24
-19
6
11
-10
45
18
26
35
21
9
-4
-16
-24
4
0
6
4
9
-13
29
42
-55
-37
-41
34
27
-64
-76
-7
58
-8
-67
-44
30
53
43
-34
-80
-10
9
40
-79
-77
-42
1
16
22
-19
-8
16
-7
-36
-18
-18
-11
9
23
23
-14
-26
42
-6
-48
-29
15
-8
-8
-12
-22
31
-26
-39
-8
17
12
25
-17
1
25
54
8
-42
46
-33
-25
30
-27
51
-30
19
30
19
4
-25
68
24
-13
-52
-37
-7
-19
-9
26
8
-21
32
-22
18
35
6
11
-16
-34
22
28
-32
0
14
-9
-13
-19
-50
-28
-47
-22
-24
-52
-50
-42
-5
-44
-18
-31
-23
-33
-52
-31
-13
-42
-5
-54
-5
-16
-40
-16
1
-31
-7
-40
-17
16
-20
-12
13
-14
14
-9
-14
0
6
12
0
-30
21
-25
19
-13
-14
-9
13
-18
-20
-13
-51
-23
-19
-38
-33
-52
-23
-8
-26
-22
-51
-53
-6
-34
-46
-23
-33
-39
-30
-18
-46
-26
-52
-10
-47
-45
-20
-11
-14
-25
-24
-43
-18
-16
-21
-31
-45
-24
-6
-45
-51
-51
-7
-55
-51
-42
-53
-5
-15
-50
-18
-44
-14
-33
-36
-29
-37
-17
-10
-6
-35
-42
-29
-43
-21
-53
-17
-26
-23
-11
-12
-39
-17
-11
21
3
-21
-5
-44
-47
-33
-42
-24
-53
-40
-13
17
-13
-13
-46
32
-46
-41
-5
-26
-26
-21
20
-51
-14
-31
-33
-41
-50
-49
-50
-16
-11
-12
-33
-8
-30
-9
48
-13
-41
-29
-10
-16
35
-13
-12
-21
-10
-23
-38
-35
-49
-33
-11
-19
-6
-30
-9
-36
-12
-38
-39
-32
-17
-50
-54
-28
-26
-51
-23
-29
-29
-35
-18
-40
-55
-29
-11
-12
-6
-7
-33
-13
-26
-42
-28
-53
-11
-46
-9
-26
-35
-43
-22
-39
-42
-18
-52
-28
-19
-55
-7
-8
-19
-30
-29
-49
-8
-46
-5
-50
-39
-14
-42
-53
-49
-51
-14
-9
-23
-41
-18
-14
-56
-7
-32
-46
-10
-28
-53
-49
-43
-41
-32
-49
-26
-52
-14
-40
-50
-55
-6
-47
-32
-6
-42
-54
-21
-9
-42
-18
-18
-50
-43
-5
-48
-40
-5
-24
-40
-53
-55
-39
-16
-23
-47
-13
-13
-10
-35
-35
-1
-17
-39
29
-10
22
-7
-36
-52
-42
28
-17
-27
-25
-13
8
-46
35
-14
-42
-29
-8
-30
-46
-26
-19
-30
-24
-10
-35
-30
-45
-51
-37
-55
-14
-47
-41
-51
-5
-53
-10
-47
-45
-55
-44
-26
-35
-34
-13
-28
-24
-9
-44
-31
-17
9
-2
-19
-5
-31
12
-20
-21
-29
-14
-25
-18
12
-33
-20
-41
-3
-39
-5
-24
-16
35
-3
26
13
19
-14
-7
-36
-12
-24
17
5
3
-1
-12
-23
-21
-40
25
17
-14
-13
10
68
98
32
-25
-41
62
8
-58
5
-24
-38
-63
-30
6
-14
-25
35
-38
-70
-41
19
12
-47
53
47
43
53
65
-14
-19
56
58
-7
-19
-11
-31
-33
-11
-5
-26
-16
-17
2
-36
-23
-10
10
-17
20
63
-36
54
-8
-50
3
8
37
-59
6
19
-8
-39
38
44
0
-8
32
87
-11
-66
-18
-3
-15
-12
-5
16
28
27
-2
32
66
75
0
29
17
5
20
18
20
-30
-76
-27
21
0
-6
-54
-1
19
55
32
-137
-20
33
20
50
45
102
21
-30
8
93
80
-4
37
-23
-5
25
-8
-22
-44
-52
-29
25
23
20
-93
-62
-60
-79
-52
-52
0
-71
23
-11
-24
-57
-51
33
21
-21
20
64
-16
-29
-7
40
13
-16
-54
41
8
44
-23
4
45
0
11
48
49
11
37
16
35
11
8
34
36
44
37
27
8
28
9
-8
-37
-63
-16
-29
-34
13
28
-25
-12
40
54
33
-30
30
47
-23
-16
24
-1
-2
-45
4
14
-11
-26
-8
-15
45
33
65
29
49
1
-10
-43
27
54
9
-15
25
6
33
15
-9
-112
2
-17
-35
-92
-131
-93
-114
-104
-24
123
-19
-44
-12
81
98
103
23
-43
63
47
55
19
-74
-57
15
0
-53
-92
-114
-92
-69
-67
-18
-5
-9
3
2
24
-23
3
90
12
-56
18
29
-14
-23
65
26
-35
-14
-17
-40
-39
-82
25
-5
-13
40
48
18
42
28
-7
-36
23
70
29
-32
9
17
4
-37
-28
-51
-41
-10
20
-15
17
-4
-72
-126
-93
-10
-9
-53
-73
6
46
-24
-84
-45
70
28
-19
-42
17
78
53
63
-7
104
27
25
89
23
-10
-26
13
66
-20
8
-17
43
11
-32
41
9
-12
52
81
35
-7
-25
-10
16
-14
9
22
0
-78
-120
-58
-67
38
-68
-23
-19
2
23
-18
46
-4
-10
18
27
53
2
29
15
85
99
62
96
15
20
20
13
37
9
23
18
-25
-32
-7
9
27
40
-15
-97
-104
-44
6
28
-55
-37
73
94
33
7
0
46
-12
-73
-30
-3
19
-42
-66
8
-50
-81
-36
20
-13
-25
7
46
19
-54
-37
41
44
26
-35
-13
-12
-20
-21
-33
-16
-23
-6
-62
-24
-40
-49
-41
8
-29
-5
19
54
32
-50
6
39
31
5
-85
24
26
-15
-69
-12
12
-2
-18
-78
16
18
-33
-47
-65
-23
-65
-48
6
-10
-33
11
5
27
13
4
15
35
-9
15
-7
10
10
-44
-39
7
-1
-28
-27
-2
-1
-18
-11
14
-15
-6
0
31
-21
12
18
33
17
19
-12
38
-13
-17
12
-20
1
2
31
-29
-1
-5
-63
-32
28
18
16
-6
-11
10
-17
-16
-30
-26
-70
-48
-39
-8
3
-58
-57
-2
-32
0
-63
-48
21
-15
-55
13
-26
-3
-59
-11
2
0
-43
31
5
36
47
-11
21
52
50
19
-51
38
17
-17
6
-55
6
52
7
38
17
6
-32
-10
36
-44
-22
11
5
-3
-59
-1
-15
-20
-77
-17
19
-27
-85
-52
-6
-50
-30
-27
-28
-25
-28
-12
25
13
22
2
4
-7
39
18
25
-35
29
92
2
-12
-12
-16
13
-46
-2
-32
-66
-37
6
20
-5
16
80
-143
-65
53
125
120
-26
119
32
74
81
58
36
22
21
74
71
113
81
13
-133
-41
111
123
-16
-112
-38
-21
3
24
74
0
23
84
68
78
12
18
63
27
7
38
18
-35
-33
-20
14
20
-9
37
45
-2
28
-9
1
-20
-9
-34
-50
10
-1
-47
-44
-36
-33
-14
-56
-23
-19
-17
14
5
-1
-15
-13
5
24
46
20
-18
-38
42
23
69
35
-56
24
56
43
59
-45
-2
57
19
14
-20
-43
22
-5
19
0
-18
22
-15
-70
-51
-19
7
11
-35
-32
-5
11
-39
-6
-37
-84
-47
-13
17
43
-31
9
17
8
22
3
61
90
-56
-69
-12
66
136
-62
-76
-17
23
146
-4
-12
-63
-49
146
41
11
-25
-81
-22
-28
3
-67
-14
2
-8
-56
-31
8
47
4
16
28
-36
7
12
4
77
67
39
29
-44
-45
22
32
-6
-23
30
28
57
-25
-46
22
40
41
13
-1
52
35
82
24
-26
84
79
25
-8
63
-106
-60
5
-11
-5
-34
-23
-13
-28
-28
10
47
20
57
14
22
-31
49
-16
7
80
67
41
18
23
-9
-29
-26
-49
24
22
73
61
14
0
-57
-7
10
2
-35
-30
15
60
-13
-3
-45
1
42
-7
48
-3
25
30
7
46
-61
7
22
-12
-18
-33
13
47
8
-34
15
34
58
-15
-3
44
57
49
-28
27
49
93
50
-12
1
-76
-21
39
8
13
-55
6
2
-8
-28
33
12
17
-35
-31
-35
-19
81
-18
23
69
106
96
4
-24
69
56
67
51
22
-48
-22
6
-21
14
-27
-18
24
5
1
-24
40
-63
-22
15
-101
-132
-75
19
27
-46
28
23
8
47
-31
23
19
-35
37
-42
9
21
-52
47
-26
39
19
6
26
42
24
12
12
7
-22
83
62
75
29
-15
-20
15
25
-37
-33
0
17
29
-28
-17
2
11
-8
-8
50
17
16
32
58
6
10
-21
34
104
-36
-6
-31
-1
55
35
24
-23
44
26
43
-21
-23
20
-6
61
23
17
43
81
-36
-55
30
120
180
-18
-25
11
164
139
-46
-18
-50
60
85
-90
-38
-135
-4
115
-71
-62
-18
-26
23
26
13
25
65
116
-20
3
-49
-6
55
-2
32
0
9
9
-32
-10
-66
-56
-11
56
44
22
11
83
6
6
-40
28
52
6
8
-23
-17
1
11
-5
-22
-11
-57
61
-18
0
16
2
62
67
98
39
12
93
120
95
36
28
81
43
9
-39
-6
29
-14
-33
-18
-20
34
-2
-13
0
-22
-57
-115
-79
-18
31
0
-4
43
-39
-21
-17
21
40
-41
-27
51
43
2
-4
-31
23
38
0
2
55
-5
7
-36
8
21
49
4
-7
-31
-38
19
1
2
-14
-43
12
36
44
-21
-59
38
49
28
-17
13
42
-14
-95
-69
24
-16
-10
-19
-33
-2
-41
51
92
60
-5
1
-36
25
8
-24
-24
42
34
67
54
-12
24
-8
-59
-47
9
25
44
-20
57
3
26
31
-56
42
29
49
-59
36
45
76
71
28
11
23
40
13
11
-27
-71
20
-5
34
16
27
10
9
27
-35
5
-19
12
0
13
-17
30
-4
-1
48
39
-13
-26
0
-20
-21
2
14
28
-15
-2
-2
24
20
-29
63
66
48
-6
26
69
36
36
-26
36
37
-10
0
25
26
9
-25
-23
-8
-10
14
5
3
9
-45
16
0
42
1
-35
3
18
21
-26
-17
20
16
44
1
-2
11
21
-37
4
14
28
23
-9
2
-21
59
-29
11
-4
-7
37
-44
-1
-5
31
38
-9
5
19
16
-3
11
-16
1
-31
-4
-21
7
11
-37
55
58
58
17
43
82
40
50
21
36
29
-63
-35
5
-15
-3
-6
10
14
9
18
-19
-24
-9
-12
1
2
-19
19
-22
-24
3
-23
15
10
13
2
-4
17
-24
-25
-43
-51
-7
4
-48
-29
-2
8
23
-2
-26
56
50
3
56
-3
40
-13
-11
20
5
12
3
16
13
-5
4
3
64
38
19
-28
-13
33
35
22
-10
-39
-8
-20
-3
-35
-53
-11
-9
14
-7
15
-5
21
98
54
119
-14
-173
-1
10
66
5
-120
-40
-26
-16
39
-5
30
-25
-40
-12
-25
-58
-125
-85
3
38
6
7
-1
47
-38
-35
-66
12
20
-13
7
1
6
5
-20
21
-36
-23
7
20
-9
-32
-4
-5
14
9
25
-8
26
56
69
-20
-16
14
56
14
-33
15
6
15
-9
-7
-15
-14
54
14
48
23
-25
10
3
-6
-26
-48
-59
-37
55
33
-49
12
1
67
49
1
-8
121
26
0
-18
27
70
-5
-18
30
-2
5
35
13
-12
52
9
38
-39
-19
47
67
43
-53
-14
2
68
18
-19
-15
27
10
-11
16
-6
-5
-11
6
32
-23
-13
-33
39
4
21
81
-11
18
-22
36
73
13
10
-7
47
20
24
41
26
20
28
-4
17
17
26
15
-19
50
4
-68
-71
-59
11
-8
-12
32
-60
17
5
-17
30
-50
18
-1
-21
-3
-49
-13
-53
-42
-16
-46
-20
-49
-34
-52
-8
-14
-9
-53
-7
-7
-51
-52
-10
-3
-46
-6
-43
-29
-4
-22
-20
-44
-3
-3
-8
-23
-15
-10
-21
-10
-25
-14
-42
-42
-3
-10
-34
-51
-8
-42
-18
-34
-45
-42
-3
-31
-30
-4
-41
-31
-48
-9
-50
-50
-37
-10
-14
-35
-17
-15
-17
-27
-11
-30
-40
-20
-9
-43
-51
-17
-40
-37
-26
-32
-53
-47
-26
-27
-48
-22
-12
-38
-34
-40
-46
-11
-44
-52
-6
-6
-34
-16
-3
-45
-48
-11
-29
-51
-30
-43
-25
-6
-51
-30
-44
-14
-8
-43
-32
-32
-9
-41
-39
-19
-17
-39
-4
-30
-19
-30
37
27
45
-24
-17
-38
-35
-48
-35
-15
-24
45
-28
-3
-15
-30
-49
-39
-28
-16
-27
-49
-43
-9
-20
23
-3
12
-9
-25
13
13
2
24
-17
-1
-20
-11
-13
17
-8
11
-9
-22
8
6
15
-9
-21
-51
-26
-9
-41
-31
-35
-22
-20
-52
-8
-47
-40
-32
-9
-43
-35
-4
-40
-53
-51
-23
-40
-48
-37
-26
-47
-21
-44
-5
-46
-51
-34
-23
-9
-47
-49
-42
-3
-15
-50
-38
-27
-40
-53
-39
-38
-45
-26
20
35
-23
-7
1
-9
-8
-19
-32
-24
-7
-33
19
13
-42
2
-32
4
-31
-38
-45
-22
10
2
43
0
1
-3
-5
-5
-17
-11
-49
-37
-34
-43
-4
-16
-48
-6
-53
-9
-52
-43
-30
-35
-17
-15
-51
-36
-48
-44
-7
-45
-31
-23
-26
-42
-11
-27
-47
-26
-34
-45
-5
-7
-16
-28
-32
-27
-6
-7
-47
-44
-21
-30
-10
21
-28
18
-8
-27
7
2
-25
33
-46
-1
1
-52
-30
-29
6
0
-25
-30
-7
-39
-30
-28
-9
-33
-34
-22
-44
-45
-27
-37
-27
-7
-5
-16
-18
-21
-39
-46
-7
-17
-45
-46
-5
-43
-8
-26
-30
-45
-17
-41
-15
-27
-53
-9
-20
-49
-47
-39
-49
-36
-15
-35
-40
-36
-46
-34
-12
-13
-50
-38
-42
-3
-30
-10
-51
-16
-22
-12
-32
-29
-39
-38
-19
-40
-14
-41
-24
-23
-31
-14
-17
-19
-44
-45
-43
-27
-45
-15
-4
72
8
-10
99
3
129
59
-1
-107
-44
103
-15
-52
-71
6
48
-52
-77
-30
56
-2
0
-16
2
-143
126
48
13
90
63
139
26
-24
-59
-93
37
-50
-43
-54
-24
-44
-70
54
40
118
44
-46
-77
-20
-117
153
93
-15
3
-187
185
63
14
47
-104
140
57
-58
-136
5
-12
-8
3
-86
66
-76
-98
-119
-51
15
0
-66
3
16
137
4
-40
63
92
91
127
37
-31
-76
-39
66
23
-10
-114
-32
137
12
4
-126
-86
-48
-16
30
88
210
-67
-79
16
114
172
27
23
44
-8
3
100
14
-56
-11
-34
101
-1
2
-38
-83
34
95
110
-36
-186
91
-6
48
191
-185
25
-57
-83
-120
80
-162
-32
-53
-29
66
-324
-176
-104
17
59
-19
39
43
46
46
-52
31
33
-42
55
-17
-55
44
-23
20
-17
-36
-17
-16
27
9
-22
19
-39
15
-44
5
44
-84
-109
107
20
54
20
-114
149
-10
34
176
28
115
-37
-104
-32
-19
-12
-112
-30
-142
10
-77
34
19
47
62
-51
-19
-59
20
102
-34
-15
-27
-27
86
6
-2
6
-25
78
46
-15
-22
36
44
30
-15
39
-37
-56
-29
24
-6
27
-161
-154
9
-68
-4
-61
-20
1
-8
-27
-68
58
-7
-10
35
63
-85
-33
18
34
50
-9
0
-5
51
72
-31
-3
-16
-26
-48
-26
-18
9
-51
17
-38
-55
-2
18
53
-17
37
41
67
123
-32
1
53
63
105
69
38
28
32
-26
81
25
-35
-28
-86
66
81
68
-15
38
-30
42
40
-98
-121
-63
136
70
103
-92
126
76
-11
-26
-140
154
7
-55
-87
-108
-223
-178
-57
-92
-52
7
-52
-11
-52
44
24
-68
13
-62
77
92
-22
-178
-129
58
-73
-45
-221
-26
24
-3
-103
-126
-60
-66
-14
-67
33
-129
-13
71
7
29
83
150
75
-41
-45
-85
58
112
-52
-175
-39
52
16
-79
-122
3
77
124
54
140
54
112
33
60
66
-51
-163
-43
91
-54
8
-76
57
61
31
11
-26
139
-14
32
3
25
-43
88
47
-48
-34
28
55
-80
-8
26
-20
-100
-50
-22
7
34
-54
-51
-38
-6
-1
56
94
52
109
5
59
54
-48
-80
50
68
-25
-68
-16
11
-34
-46
-76
-9
24
-38
-81
-59
21
56
84
88
112
178
67
66
-23
-29
-24
73
39
-53
41
62
-53
-93
-71
38
52
6
-49
-1
6
-8
7
10
-10
-45
14
-68
-25
-9
48
7
-68
-12
-18
-14
25
27
79
-18
-33
-7
23
-16
-102
-55
42
23
-15
-48
16
96
-190
-91
22
30
-26
-114
7
2
-75
32
56
124
-47
-37
8
145
0
-89
-52
30
47
-53
-68
-2
90
-2
-19
-73
-91
-113
112
37
-35
-32
-55
-61
-117
-19
56
87
-52
-118
41
59
-31
-30
-38
96
5
-49
10
-49
0
-35
-49
-21
-48
33
24
-55
33
42
37
54
-30
51
51
25
56
-7
-37
10
-31
-29
-15
38
16
-6
-52
-88
-2
55
15
4
-14
34
1
-37
49
95
10
12
-23
23
46
19
-38
-29
14
5
-64
-52
140
145
-2
-23
-11
55
61
-112
9
0
82
-14
-71
-16
62
59
6
-88
3
-26
-15
-30
-34
-31
-4
-148
-115
-4
-133
-106
100
125
-28
78
-28
-19
37
-4
64
48
184
5
-21
0
-5
1
-35
-128
-55
-1
158
171
-67
-10
48
36
39
-63
70
39
-21
-13
17
33
84
77
-16
-88
100
4
4
-25
-123
-19
-50
27
11
17
-6
-48
55
-64
-28
12
76
108
-101
-9
9
-24
16
-41
15
11
-46
-71
35
37
77
-91
-149
-92
57
19
-89
-58
20
95
-34
-87
-84
61
103
-139
-116
-87
29
55
-78
-47
13
-41
14
68
54
-50
-42
-8
33
-96
-14
33
33
17
-93
41
91
8
-1
-71
-3
18
11
-9
5
13
4
77
-102
-139
-186
-124
-124
-24
-99
-63
-51
20
-6
-74
26
-36
59
21
-79
17
23
31
8
-69
-16
90
85
-60
-30
-146
-19
15
-12
19
-131
-47
-53
151
32
-79
-73
-32
99
-73
-57
-39
146
-24
16
59
138
91
-24
-11
-37
-51
-48
-25
-48
-31
-54
-22
-16
-46
-42
-47
-6
-21
-35
-13
-26
-29
-44
-39
-43
-54
-37
6
-32
-28
-6
-24
-17
-22
-48
35
20
0
-7
-18
16
0
-19
-42
18
-11
-22
20
19
12
6
-22
-50
-36
-16
42
-38
-8
-52
-29
41
-18
-38
-43
44
-22
-22
-10
-51
13
-53
-37
-41
-23
-41
14
12
-11
-18
-49
-56
-25
-11
-19
-43
-6
-54
-42
-23
-7
-49
-29
-50
-25
-52
-27
-49
-32
-22
-29
-34
-6
38
-54
-20
-41
-29
19
-25
-18
-39
-23
-54
-32
-52
-11
-52
-24
-32
48
-10
-33
-14
-33
23
-33
-15
-46
-38
-41
34
15
-7
-5
42
-33
-53
-44
-43
-47
-48
-23
-26
-50
-41
-37
-22
-38
-46
-23
-53
-39
3
41
21
30
-49
-26
-4
53
-34
-35
-20
-19
29
-41
51
-42
29
-24
-5
-40
50
19
-32
-42
-34
-27
-30
-16
-38
-49
-10
-38
-49
-31
-42
-32
-53
-17
-40
-42
-46
-17
-26
-23
-42
-46
-20
-13
-53
-15
-51
23
-31
-14
-17
-53
-24
-55
-36
-14
-30
-44
-42
-52
-7
-39
-54
-10
-9
-25
-28
-35
-26
-33
-19
-49
-51
-24
41
19
44
-11
-20
25
-36
22
-42
-18
-13
-20
38
-22
-37
-6
-14
-52
-36
37
-47
-42
-40
-23
-21
-48
-25
-44
-52
-5
-27
-16
-6
-29
-29
-22
-21
-34
-31
-40
-29
-49
-31
-35
-7
-54
-39
-50
4
-6
-21
-24
-32
-13
-5
13
-46
-14
-39
-20
33
-38
-51
-42
-27
-7
-47
-33
-22
38
-12
-50
-1
-31
-21
37
-33
6
-12
3
13
30
37
51
-17
43
-17
-49
-13
-21
-33
-7
0
-29
-12
-54
-53
-53
-25
-18
-48
-27
-9
-35
-12
-13
-42
-34
-26
-46
-9
-20
-23
-28
-8
-41
-12
-14
-36
-23
-51
-44
-28
-41
-35
-22
-52
-30
-11
-3
-18
41
-13
-4
41
-48
51
-3
33
-6
-25
10
-51
-44
-7
-14
-41
24
-31
27
27
28
11
-16
1
-51
49
-38
23
0
6
20
-21
-23
5
4
-9
16
-17
-7
-9
20
-8
-56
-34
-15
-40
-23
-9
-10
-47
-15
-11
-47
-43
-40
-52
-38
-26
-43
-7
-32
-52
-16
-21
-13
-38
3
-41
-34
-12
-43
7
-26
-19
-43
-22
-14
-23
15
-47
-11
-17
-24
4
-6
-17
9
-30
12
-25
17
34
13
-50
-24
-55
-36
42
-18
12
-33
-53
-48
53
26
-5
-28
12
39
-51
-41
38
12
-52
-52
-50
-44
-6
-40
-44
-19
-52
-46
-27
-48
-31
-6
-44
-24
-39
-35
10
-15
-29
-33
-54
-10
-36
-17
-24
-51
-31
-41
-34
38
18
-37
-17
-46
28
24
-47
-6
-8
-32
-43
36
-17
-38
-33
-32
39
-8
-7
-22
-21
-42
23
-14
-21
-40
45
27
-52
22
10
-45
-26
13
28
20
-38
-14
55
50
-53
-52
52
23
-53
-5
-49
16
10
52
-40
-37
35
-13
54
46
51
46
-13
34
49
-17
-43
22
-13
-52
23
35
5
-25
-21
-36
-6
-10
-18
32
-46
-38
-44
-32
-21
-12
-31
-6
-9
-35
-19
-12
-31
-15
-31
9
-15
54
-43
-6
-9
-54
-33
13
51
-40
-48
-50
-52
36
-27
-39
-30
-42
-13
-49
-37
-27
-27
-23
-10
-15
-9
-50
-6
-38
-33
-22
-38
40
-17
-14
-13
8
-31
-48
-53
-25
23
-50
-54
-14
-6
-33
-11
10
34
37
-48
-48
-37
-35
-53
-41
-24
-43
-44
-33
-30
48
-22
-21
-6
-15
35
-16
-23
-13
-52
-17
-20
17
-28
-51
-54
-11
-18
-43
-15
37
-46
-26
-19
-32
-32
-39
-43
-19
-13
-26
20
-18
-29
-10
-31
-48
-49
-10
-37
-27
0
-53
-45
-9
-15
45
-23
37
31
-26
-27
37
11
12
7
-39
-48
6
16
-26
-16
45
39
49
-38
-31
-35
-14
-22
-35
-25
-20
-23
-11
-20
-24
-48
-8
-45
-35
-22
-16
-41
-26
-14
-29
-7
-27
-30
-45
-39
-6
38
-33
-41
-7
-9
47
-36
33
-35
45
38
-12
44
-35
-40
14
-28
7
-50
-28
15
50
43
-18
-46
32
-20
-6
-14
37
9
-53
-27
-7
-14
-33
-39
-22
-46
-39
-19
10
47
-16
-1
-24
11
-17
-17
6
13
-27
12
44
27
-68
-21
42
-4
-6
-68
3
31
-31
-83
-45
-15
-63
12
-33
3
-42
-53
2
-4
-5
-20
-8
26
26
-40
-17
32
44
-6
-34
-4
39
-76
-52
-64
-31
-47
-57
-24
-30
-47
-59
26
-51
3
-4
4
-10
22
-33
-22
-2
10
-12
-78
8
13
53
-7
-11
0
14
30
-4
-17
3
-46
-31
-15
-63
-24
-14
13
18
-56
13
49
61
36
-46
23
59
-1
12
-23
-14
-11
-83
-100
-36
7
-3
-82
-37
-48
-18
4
-35
-12
-7
-14
6
62
42
-13
33
22
45
7
-11
25
3
-33
-105
-57
10
-13
59
-25
49
49
58
40
36
7
8
39
-33
19
-62
-9
6
32
-65
33
20
-1
74
33
66
5
-36
55
-36
-46
-29
-3
30
-17
-37
-7
-51
22
31
-23
30
-9
35
5
-38
37
13
-22
-40
-43
22
-10
41
-24
-16
-44
-19
-46
-4
21
-26
10
54
47
4
-23
30
78
12
-13
-3
30
-7
-46
-24
-2
-20
-21
-71
-35
-15
-96
-27
-72
-12
-55
-109
2
3
30
-43
-34
3
9
55
43
11
-70
-32
-13
-5
-60
36
-42
-132
-264
-169
-23
-21
-13
-59
-52
-56
14
106
7
-121
18
16
-2
-71
-14
38
-11
-39
-47
-14
-7
-48
-66
-36
-44
-40
-51
-64
-76
-102
-30
-13
-29
-85
-70
47
2
8
61
24
-14
-33
-14
-14
-23
-21
-59
-2
-24
-76
41
-13
24
-42
12
46
44
69
-38
48
-27
-2
-16
-32
-3
-50
-32
-88
-27
-21
-23
15
7
31
4
-49
17
-58
-12
13
-37
-67
-59
-54
19
-39
-70
-83
-1
-5
62
22
0
-27
15
-11
-6
19
28
55
35
11
-20
30
60
14
-6
10
23
1
18
-10
36
13
-3
-54
11
36
-32
18
28
61
106
112
83
15
-6
-5
69
109
-29
-65
-50
34
59
1
-8
-5
-2
-18
-7
21
66
43
-20
0
-8
-36
-44
-23
5
17
-67
5
56
-24
8
-13
6
8
-27
-62
-49
-75
-11
-67
-89
-56
-5
-36
44
82
18
-14
-36
60
10
-21
9
48
-18
-52
-56
-24
7
13
-45
-7
-15
-24
14
30
51
29
102
-41
35
31
-32
-42
25
28
15
-27
50
22
-5
-25
-50
-4
4
-48
-26
-13
-15
48
73
28
-9
44
84
33
38
14
12
11
-15
-19
26
33
-15
-2
-54
-8
55
35
-51
-7
19
-3
32
-1
30
40
-10
-35
-9
-29
-4
28
-30
13
-22
-16
-8
23
69
7
-13
7
27
-33
-66
-31
41
-8
-50
-42
5
66
-104
-20
0
-26
4
-127
30
50
-14
28
19
123
-3
-37
-9
62
11
-69
-11
-22
23
-3
-42
-16
20
82
33
51
35
-26
83
26
0
-16
4
-23
-23
-37
10
-1
-39
-111
-2
12
-19
13
-44
54
43
4
12
-19
11
39
-1
29
36
12
49
11
22
55
19
24
33
32
53
6
51
3
31
25
24
10
5
62
31
31
-4
19
15
71
3
-20
20
45
61
0
24
44
35
22
-33
-13
43
-7
-15
-33
42
-21
-14
-72
19
35
19
21
-37
-9
-36
-30
37
26
68
-29
-58
-3
40
84
25
-51
14
-20
-2
-6
-64
-52
-79
-169
-121
79
-105
-131
22
115
136
103
42
38
64
87
55
103
178
31
-31
-7
3
24
-44
-127
-28
-11
70
61
33
-24
-30
-50
-24
20
60
43
-22
-45
24
65
74
54
-17
-13
45
2
21
18
-29
7
-52
-45
-30
-34
5
3
59
-37
-56
41
99
103
-62
-11
-15
-27
-5
-47
3
5
1
-19
-29
10
39
9
-58
13
32
32
0
-32
12
24
-1
-108
-62
13
75
-52
-93
-78
4
55
-54
-81
19
-25
22
47
55
7
5
-5
47
-14
13
-6
-14
6
-56
27
54
-23
15
2
27
22
35
-21
16
36
30
94
-11
-47
16
18
-55
24
-5
3
-35
-12
-9
-55
3
-35
-20
1
-49
-23
-7
-21
1
-25
-31
16
86
-50
-1
-89
-41
-13
0
38
-5
17
23
75
11
-5
4
25
68
7
-39
-30
54
-18
-28
-18
1
10
-134
-32
-18
8
-16
14
15
27
-52
-32
81
102
-25
19
1
92
41
-78
-10
-26
-67
-89
-8
-16
-97
-51
-15
-2
24
-21
32
40
39
-51
-38
123
96
7
-3
45
50
11
-73
-34
2
-70
-41
-17
-34
-79
35
-43
3
-31
-20
-53
4
-2
-52
-8
27
45
-23
-15
-27
116
75
-39
-6
-2
38
-8
-31
20
-1
-67
-56
-23
13
-18
-14
-17
-6
-24
-13
34
13
-1
15
-19
18
-10
-54
37
21
60
25
-22
0
-25
-80
-37
-2
-1
-1
-47
-27
-18
17
25
-28
0
-15
0
56
-38
7
-28
43
22
35
-36
-44
31
-2
62
13
-33
-14
-12
-41
-15
-18
-24
29
-40
24
6
-22
-7
25
-22
-28
-29
-8
15
-11
-14
-29
0
13
-26
45
18
12
-17
46
10
24
47
-14
-8
-39
5
9
27
31
29
51
30
53
44
45
-26
46
-20
6
-27
3
2
-57
-57
-31
-18
-10
-10
17
-2
-33
2
24
4
19
-8
-29
43
0
-41
-32
-44
-15
-6
-8
17
21
-68
-74
-20
-29
32
-4
-14
-46
-41
-56
58
30
33
7
66
-1
-37
-23
1
8
164
100
-14
-112
-108
60
52
99
39
-50
-50
-28
-22
4
-46
-7
64
22
13
98
46
119
76
27
37
49
29
8
15
-37
-39
-48
-1
13
36
-26
-27
-56
-88
-37
55
72
113
82
56
1
-37
16
27
20
-58
-15
1
27
-24
-27
-65
-19
-51
-20
44
-26
34
30
18
-69
-50
1
27
62
-28
-4
-43
-36
7
71
156
-17
-45
48
41
-48
-9
19
24
10
-74
0
-21
-30
45
-33
-60
-43
-12
30
47
-50
11
-15
-71
-28
21
-25
-33
-64
-10
-15
-15
-19
43
-14
-21
-19
-7
96
3
31
-15
4
17
-61
5
-12
11
-18
-4
95
90
10
-115
-48
99
125
35
-123
-35
-76
65
59
-36
46
-34
33
64
104
33
35
81
29
7
-5
-34
9
-48
147
183
97
0
3
-35
-12
27
50
28
-118
-52
-68
-8
19
-41
15
-34
-58
-80
-14
-9
28
32
18
-19
-41
-38
2
-83
-40
-17
17
-52
-49
15
47
8
-36
42
-32
15
-4
-8
-13
-24
23
36
-7
-72
21
18
-53
-69
-102
26
-51
-53
-61
2
57
26
28
74
130
1
25
-58
36
112
-34
-68
44
36
52
-98
-9
9
24
5
-69
-21
17
-6
-58
-16
11
-2
-37
-54
92
37
-41
-75
-43
-92
-43
-5
12
-37
-48
-52
-63
-71
-83
-58
-91
-78
-46
-75
26
9
-19
-63
-55
8
69
37
-43
10
-40
-44
-22
-17
34
-46
-34
-77
-83
-33
-94
-128
-144
-103
-179
-28
-50
-47
-94
-140
88
98
49
53
117
-41
141
0
86
123
77
-87
42
85
96
-118
-4
76
49
52
-51
-58
38
39
7
-99
-80
-2
-131
-77
-34
21
18
46
29
-21
-53
51
29
27
-52
-19
40
14
-29
-54
-18
23
-22
-21
23
29
11
41
-3
-42
7
-2
30
56
-59
1
15
19
46
-79
-30
-17
16
13
-41
-40
60
4
-51
7
48
28
-68
-25
-91
-21
1
50
168
-16
61
49
46
129
42
39
-20
-29
43
-17
-56
17
-50
-64
71
45
43
41
90
-8
-11
-97
-64
-37
-21
-13
20
48
57
114
55
62
108
35
55
-11
82
85
64
-79
0
32
8
-35
-42
-35
-1
15
55
53
52
12
43
80
19
55
29
22
94
-54
-77
17
22
-28
20
17
-79
-51
-3
-53
-21
-42
-2
3
-65
-34
-12
-42
-56
-17
-31
-25
-35
-129
42
-30
-4
-27
-87
1
0
70
-10
35
56
-103
23
-37
-48
-17
-145
101
40
33
-128
-204
-25
12
20
-101
-87
6
-51
-77
-23
-61
-56
-116
-53
-44
11
21
3
-36
-28
-49
-29
0
-9
-63
-75
-27
-41
-30
4
8
-29
-35
-46
6
20
-35
-44
-9
-92
-33
-117
-15
-119
-29
-142
-146
-82
-67
-90
-188
-198
-85
-81
-59
-57
-132
-106
-75
-50
76
-1
32
-54
-37
-14
-59
-65
-102
-20
-86
-84
-61
-68
69
-54
0
-12
3
-72
-44
-6
22
45
-109
-87
9
1
0
19
51
30
13
-18
-45
10
-59
-12
-24
-53
11
37
-2
-45
-18
101
-27
-14
-4
-36
-43
-35
37
29
28
44
57
10
3
7
3
-23
-25
-25
-30
33
29
21
-38
-21
11
35
25
11
-23
26
15
44
77
-22
15
24
-8
-8
28
37
-18
9
27
-30
-27
27
56
37
-31
63
7
0
-46
-51
12
-35
-3
16
7
9
10
36
-11
21
22
-12
28
-2
-44
-11
17
25
-21
-37
26
18
-2
2
-35
44
26
47
22
-54
7
24
28
-36
-36
6
7
19
-17
-8
-20
-40
-1
7
-63
2
-6
-10
5
-85
54
3
25
9
-94
-56
-53
-65
-31
-19
-27
-42
5
-27
-14
-39
50
59
12
-44
79
21
29
-4
-15
6
-16
-19
-26
18
-3
4
-16
4
24
0
-4
-21
-11
0
-16
13
-10
23
-5
-8
-17
0
7
9
-20
7
-7
-25
16
-62
-5
21
-20
20
36
0
-10
27
0
-37
-19
36
22
-54
-33
32
32
-15
-30
34
-17
-12
1
14
15
24
2
-33
-34
20
24
31
-92
17
27
-3
-40
-30
21
39
-8
-55
-79
23
-10
-16
-61
-39
-13
1
-14
-44
34
41
64
58
-6
-111
-9
-56
-92
-25
-114
11
-59
-53
-65
6
13
17
-1
-83
-17
-26
20
17
-22
-59
-16
67
46
-18
-39
47
-15
-19
-17
-10
-4
-33
17
-11
-72
24
-15
-38
-50
-47
0
23
15
53
13
-8
-1
35
42
-12
18
3
-38
0
14
28
-5
16
20
-20
-36
21
54
39
32
57
-106
-127
-37
44
86
-37
-42
68
43
94
18
5
80
22
65
55
42
64
14
76
39
-18
-15
25
0
14
-6
9
-31
22
-10
-1
2
0
31
30
12
-7
-18
46
78
0
-25
-8
3
24
15
4
8
-58
-107
-99
-56
-60
29
-47
-13
-2
-36
17
13
53
62
29
56
92
60
36
29
64
42
68
77
57
23
22
26
11
7
33
-16
-37
0
-50
-48
35
35
14
-10
-98
-30
5
56
28
-40
26
73
38
26
-58
14
52
41
-18
-17
-19
4
31
-43
-41
25
44
11
-42
-6
30
35
-17
-35
84
76
-28
22
16
-15
-22
19
30
12
11
31
-7
-10
-27
-24
-21
-15
25
-50
-41
9
31
-20
-80
-41
-8
-7
17
-37
-100
-73
2
-27
-7
-12
-19
-5
30
34
-10
-22
61
40
4
-17
55
38
-7
-25
28
16
-8
-16
-37
-40
-32
4
50
8
23
-4
54
6
5
-1
-3
23
-6
-17
-15
-12
39
3
-49
-50
-36
27
-3
-63
-87
-30
-12
10
-29
-12
-4
5
9
-8
-21
-10
26
10
-48
-4
-22
11
-17
-29
-60
-25
4
20
-76
-100
-89
-17
-80
-76
-56
-48
-9
-3
-28
-16
-32
60
38
0
-42
26
58
-8
-60
64
128
26
-56
-52
23
13
0
6
20
16
-2
-2
-7
23
-5
14
32
-20
-1
-24
24
-13
-11
-5
7
-12
-8
14
-16
-56
-93
-12
3
-23
-71
-37
-7
0
3
-7
0
-7
-2
41
-43
-22
51
16
-39
-61
49
9
-3
-41
-42
-48
-44
18
46
-28
8
-4
50
26
3
-7
-24
-22
13
-10
24
7
-43
-50
-34
23
8
-46
-90
-49
-116
-110
-71
-129
-37
-70
-114
99
239
-19
-14
-50
20
61
8
-2
31
40
23
32
20
60
85
41
-73
-111
-113
-32
-9
-39
-13
22
48
47
-3
0
-32
5
55
-3
-8
-3
46
-29
-5
18
9
-33
-64
-13
5
-10
-5
18
-36
6
-9
33
-5
-39
21
-54
-36
-19
29
0
-29
3
-45
-9
-41
-13
-26
-60
74
-2
-69
-31
-16
55
-43
-29
10
10
37
13
120
74
-5
-21
91
88
70
8
46
157
68
24
-28
-58
-36
-5
-30
-31
-7
31
19
-6
-15
-7
44
43
4
-48
15
77
21
-24
-52
40
60
21
-36
-23
-19
-63
-33
-85
-36
-15
-38
53
-48
-2
26
-21
15
-46
6
33
66
55
-34
45
5
60
32
17
22
3
-21
31
46
-5
46
-46
-21
-10
-46
-30
-39
32
6
-61
-25
-47
23
26
-14
-37
15
38
42
-2
-57
31
44
29
7
13
16
-39
48
12
-5
77
106
54
-3
52
96
5
8
32
32
-1
-3
0
-41
4
18
-6
-26
-29
7
-23
-56
-64
0
-26
1
30
-11
-17
-37
0
4
11
47
-38
-37
-36
5
42
16
-15
-11
-25
-22
42
-3
-27
21
29
0
-15
26
64
81
-2
75
26
34
9
-11
31
20
-8
-3
-13
5
15
23
4
-39
-9
8
7
55
-18
27
7
4
8
-40
49
19
-19
44
-4
57
28
33
11
-19
-7
25
55
-39
-29
-14
4
25
35
-28
8
-30
11
24
-68
16
28
-4
8
-23
60
22
0
-1
-53
-40
-27
-30
-75
77
7
-2
4
-34
68
0
54
78
106
-43
-3
21
12
57
-64
-40
-6
-14
13
29
-44
53
-20
-15
-22
-47
-31
51
17
-24
-23
14
16
-17
45
53
35
-33
39
50
10
-26
-16
-12
86
31
16
0
-72
41
10
13
53
26
25
-20
5
75
93
0
24
36
21
5
-3
63
19
-14
2
-9
32
86
82
-102
-15
19
35
43
-85
40
15
10
-3
7
34
58
32
9
52
37
6
-6
-2
6
133
124
103
-46
-123
63
29
51
-33
-118
-3
-44
-72
6
-113
4
-32
0
19
69
23
-17
11
57
153
11
66
58
40
-125
46
37
58
0
-51
13
-14
-45
-24
5
-26
6
18
29
9
40
17
0
27
16
22
35
39
49
-23
-31
10
60
81
54
-20
37
25
35
42
25
-33
50
23
-5
-22
24
37
1
10
-37
-125
-135
44
46
15
-31
-40
118
69
90
-8
8
49
25
118
46
-4
10
5
54
-47
2
18
-7
-26
6
-1
-12
10
-15
-37
15
17
95
22
10
-3
43
47
90
83
-2
-2
-33
16
18
8
4
-67
-173
-171
-212
-43
-101
-88
-71
-31
27
95
-27
-7
1
28
93
76
53
-38
8
46
36
58
40
13
-34
7
6
-9
8
48
36
-31
-56
-66
-13
-73
21
4
-21
2
-81
-22
-2
22
31
32
-30
23
54
20
17
18
29
20
-11
68
37
1
-40
-35
61
24
-19
4
22
13
-33
-8
-17
-1
-16
0
20
27
7
-35
-14
16
-17
15
21
25
13
-48
-36
10
-9
-63
-29
-20
-15
-22
-16
-17
-29
-30
-16
-3
2
-33
-17
-17
-13
-25
-29
0
14
-1
-1
-43
51
22
-3
-50
-22
32
-24
-51
-31
-25
30
-33
5
-40
-6
-33
-38
8
-21
0
43
34
12
-16
-20
35
15
-39
-54
3
19
27
-29
-45
11
43
1
-35
-10
-21
4
0
-20
7
11
-21
-1
-21
-14
8
43
-11
-31
-13
27
45
-7
-46
-13
7
16
-9
5
-23
10
-7
-2
-34
-18
-40
23
18
12
-33
-1
51
43
-23
-37
-15
21
-2
-2
-11
22
-10
-15
-7
-19
2
-16
-9
-1
21
-3
10
39
8
18
16
37
40
6
3
37
18
49
-16
22
34
16
43
8
23
0
-13
-39
-33
-7
-9
-41
-13
-4
-11
-24
10
27
7
-37
-32
36
24
-11
-49
4
5
8
-29
-15
-16
3
-43
-49
26
16
-13
-2
-13
45
80
-26
-17
-29
11
20
21
0
-44
1
28
16
-32
-23
12
12
5
45
14
-37
-95
-21
2
-26
13
-79
-34
57
-10
45
57
16
-8
30
-14
25
-25
37
23
47
65
-3
-46
-7
28
26
-38
-41
17
65
38
-21
-18
-1
0
21
-10
-23
-54
19
-15
-2
9
-5
-19
16
-3
-18
-2
-2
56
10
-45
-24
-2
0
3
-32
-31
2
-30
20
28
-16
-3
-20
9
6
-29
-41
-18
-21
83
2
-50
-45
-63
70
41
-35
0
-24
49
49
3
-43
5
69
-7
-32
-7
-50
-5
-33
-21
-29
-18
1
-32
-29
-25
17
17
-28
0
-12
32
4
-9
-4
2
24
-27
-27
-15
-13
-7
-22
-38
-36
-17
9
0
-11
-22
3
-3
-23
11
-14
17
7
-40
-2
-39
37
20
-49
-31
-8
26
8
-15
-10
0
-7
-11
20
-23
-22
1
-47
35
7
-32
-46
-2
18
-32
-43
-25
-16
9
-16
2
-27
-30
15
-34
-19
0
-47
-22
-27
-45
-16
-45
-5
-20
-15
-25
-48
-20
-31
-21
-3
-19
-30
-44
-38
-7
-28
-37
-39
-33
-32
-14
-1
-12
-1
-48
-47
-26
-23
-17
-3
-42
-13
-39
-36
-37
-35
-7
-30
-29
-41
-34
-35
0
-29
-40
-13
-12
-5
-6
-13
-48
-1
-35
-44
-47
-32
-10
-48
-42
-38
-44
-24
-31
-11
-32
1
-12
-41
0
-10
-48
-10
0
-45
-38
-32
0
-11
-34
-6
-22
-26
-54
-20
-45
-20
-42
-20
-17
-46
-38
-8
-25
-16
-1
-49
-22
-25
-33
0
-36
-41
-25
-37
-9
-33
-22
-48
-18
-33
-47
-10
-21
-49
-23
-35
-22
-28
-35
-7
-11
-29
-34
-32
-32
-22
-6
-31
-49
-10
-6
-20
-22
-18
-12
-46
-9
-8
-18
-35
-28
-23
-19
-16
-23
9
11
2
-7
-12
16
-1
-15
1
21
-25
-6
15
23
0
1
18
-14
7
23
-8
-14
13
-5
-16
-3
-11
-29
-31
-18
-32
-2
-4
-19
-1
-28
-24
-17
-32
-46
-31
-8
-44
-42
-10
-7
0
-29
-10
-33
-30
-18
-35
2
-25
-19
-48
-34
-17
-40
-4
-40
-29
-41
-16
-11
-7
-41
-42
-40
-1
-29
-53
-19
-3
0
-8
25
20
8
-8
-28
14
17
-24
-45
-21
29
13
-14
-18
-44
-5
-14
-15
-19
-42
-34
2
-21
-46
-34
-4
-25
-45
-28
-17
-9
-10
-44
-41
-51
-21
-25
-45
-20
-36
-31
-21
-30
-1
-30
-50
-4
-3
-47
-4
-38
-42
-46
-15
-30
-29
-34
-33
-22
-40
-36
-4
-52
-4
-35
-41
0
-33
-7
-34
-38
-49
-17
-44
-48
-31
-27
-39
-1
53
-7
-33
0
-39
15
-10
-15
-46
-28
32
-14
-53
-41
-13
-47
-25
-5
-43
-36
-42
-7
-8
-18
-14
-7
-13
-46
-27
-17
-29
-42
-40
-14
-46
-32
-41
-18
-32
-37
-32
-44
-43
-1
-9
-29
-35
-39
-24
-13
-9
-50
-28
-25
-29
-14
-43
-24
-21
-32
-30
-36
-41
-48
-37
-25
-6
-12
-2
-49
-32
-36
-51
-37
-37
-15
-17
-30
-36
-14
-41
-30
-18
1
-46
-21
-28
-30
-11
-50
-41
-41
-3
-48
-38
-51
-5
-29
-51
-32
-56
-5
-35
-33
-47
-8
-44
-13
-53
-21
-12
-15
-30
-5
-34
-12
-12
-49
-34
7
-14
-43
29
-6
-19
7
26
16
-22
0
21
-10
16
-20
26
35
12
-18
2
-22
25
5
24
18
19
50
-19
-34
26
18
-55
-23
20
13
-11
-13
-19
-31
-38
-25
-15
-28
-41
-32
-52
-13
-9
40
10
15
54
-30
-32
-39
-14
-37
-12
-16
-47
-54
-23
-49
-13
-45
-23
-28
-38
-15
-54
-16
-11
-44
-13
-51
9
21
6
-18
-53
52
-49
-30
-7
-52
-51
-52
-5
-39
-10
-27
-55
-11
23
-53
-16
-5
-42
9
5
-37
-35
-20
-36
-6
-42
20
-34
-28
-54
-29
-39
-14
-45
36
-42
19
-9
-41
45
19
-40
-25
-52
-51
0
-36
-12
-33
-10
29
-8
-51
43
25
40
8
-32
-17
-47
-55
32
17
42
-19
-9
-42
-22
28
16
30
-37
49
-10
-19
-12
-42
-23
-32
-35
-33
-45
-23
-31
47
-46
-52
-5
-46
-41
-17
-37
-44
-28
-12
29
30
23
-22
-8
-52
6
-39
-47
-10
-36
-54
-32
-26
-27
-17
-42
17
-25
-19
-21
-54
-30
-8
47
31
8
-54
-8
-33
10
7
30
-5
-26
49
-28
-27
-35
43
7
-16
-46
-19
33
-11
-26
-14
-28
-45
20
16
-41
-49
-35
25
16
-53
-24
-20
-38
-17
-9
-35
-49
-9
-19
30
-28
-54
-21
-23
-20
-40
28
43
-15
47
-42
-29
-28
-41
36
-5
25
-54
-29
-41
-45
42
-25
-18
-30
-36
-21
-39
-47
-27
-36
35
4
12
0
-38
-32
-32
-22
-33
-54
-34
12
-47
-29
-32
56
23
-34
-50
-49
-20
14
-14
-15
-12
19
-13
-47
-39
-8
-18
-37
-46
-47
-5
-44
-14
-53
-12
-36
-52
-54
-7
-47
-17
-46
-32
-34
-54
-30
-54
6
-48
-42
-35
25
-11
20
-15
-13
-42
6
4
-14
-2
-17
21
33
-29
-4
-54
12
46
-16
-5
-10
6
-21
-28
-21
-4
-4
14
44
-10
-23
8
16
41
35
46
23
46
-28
21
44
10
-5
-23
18
4
28
7
-2
-21
13
86
45
15
24
-12
-13
1
-5
-31
19
-60
-85
19
71
41
-26
-47
26
23
2
-13
-64
-25
-10
41
-57
-4
51
62
22
-27
-33
-19
7
-2
15
-12
17
-13
-22
-20
-9
36
-24
-28
57
13
61
78
32
5
11
17
-3
-42
-12
13
-51
-54
-25
-71
-95
-71
53
27
5
0
30
52
22
-2
-29
-27
-38
-46
-4
-2
36
18
-12
20
18
13
-11
43
57
15
-19
27
2
-34
-12
11
-14
12
53
7
-34
-1
-1
43
-6
8
6
-16
2
-13
55
0
15
125
14
17
4
20
29
57
35
-18
-3
80
14
69
89
46
14
19
12
-24
-42
-9
2
-12
-36
-95
-40
-65
-54
-20
14
-19
-60
-3
44
0
23
-21
50
-28
42
-12
-33
-10
-14
-18
14
32
-45
-28
32
54
54
-12
48
43
14
-30
-8
14
28
-15
28
13
42
32
0
2
24
-15
-26
56
13
27
-38
-61
3
-11
-47
-43
30
-22
-46
7
28
45
-8
-33
-27
-23
41
-14
-40
-5
15
35
-10
-24
11
58
-23
2
3
9
-4
-61
27
9
40
40
60
-20
-83
-41
-29
36
-82
-92
-35
10
127
-10
61
100
-27
99
-56
12
114
3
-102
58
23
53
-49
-93
24
21
-13
55
102
-41
-47
-12
20
16
-12
13
-1
-7
-34
20
-17
-59
-70
-37
33
19
50
63
31
-16
15
-20
-46
-5
0
-29
-12
-20
-9
25
-29
-5
-9
0
39
65
15
37
13
-2
53
-12
6
23
22
152
108
57
30
69
109
16
-27
-31
25
78
-29
-86
8
-149
-70
-109
-22
43
-145
-76
-44
2
48
4
25
23
8
-32
1
44
-11
-41
-51
-29
6
-13
19
2
-88
-44
5
39
59
-48
-5
10
6
17
87
50
84
44
-6
44
50
6
-45
-83
30
-4
75
23
-38
-18
-19
13
22
-9
-76
-54
-21
20
0
-36
-15
-47
-24
29
-36
-26
20
55
98
37
6
-23
10
37
126
131
27
11
-68
27
-30
-4
-55
1
25
12
-26
-4
54
50
9
-49
-27
51
-13
-25
-75
9
11
-14
-33
-32
-14
-5
5
13
2
-48
-22
42
38
-6
-22
47
22
3
-22
-4
17
20
11
-48
-31
-7
-65
-66
-67
-42
-79
-51
-17
0
-36
-69
48
-13
-39
-30
40
7
-35
-38
-9
57
6
3
-74
-2
19
28
21
1
9
-1
-18
-69
-27
15
-13
39
-3
-37
-6
4
20
7
-22
26
14
46
22
-4
17
48
-12
-10
-33
39
19
-86
-52
-10
45
-7
-31
-24
-14
-6
64
2
38
35
32
56
35
-7
-12
27
23
40
3
4
42
21
-90
-57
-31
4
-14
-24
-29
1
33
82
-3
17
-21
29
65
4
14
-81
0
42
38
11
33
9
-16
22
39
19
4
-41
-49
-17
-30
-39
0
26
16
28
23
30
14
-24
-25
14
46
38
-35
45
38
-8
-19
-47
28
47
35
41
-51
-20
-42
13
46
25
-20
-5
53
34
20
11
-11
48
34
-5
-18
-8
-16
-17
-11
-44
-38
-8
23
20
21
-10
-62
27
-27
5
0
-96
25
13
41
-18
-58
5
0
50
30
-50
-54
-15
-29
-17
-50
-15
-118
-144
-149
-61
77
71
-61
-134
-73
169
124
102
60
-120
80
81
33
10
11
-14
-55
-16
-40
-11
-19
-12
-10
-60
-102
46
1
-55
-59
-93
18
52
-6
-24
-32
0
7
53
68
-28
-54
-53
-24
-6
-19
8
5
0
3
-52
20
20
36
-1
-5
19
56
52
45
39
0
-9
-12
-32
-9
-56
-10
-19
-27
26
-110
-26
-31
-17
0
-139
-34
-58
-35
37
-60
-24
-21
-61
-11
28
-28
-55
-35
33
67
56
32
-10
17
0
42
-19
50
73
0
8
-54
12
67
-24
-32
-8
36
-1
13
19
5
-12
-29
-57
-26
1
14
5
4
71
115
118
86
-28
31
24
104
81
-47
-22
-91
53
17
-9
8
-54
19
-12
27
51
130
55
5
48
21
-10
-20
-16
20
40
-9
11
39
30
0
20
0
3
-84
-70
-69
-44
-46
-141
-75
-4
5
14
-21
8
52
20
-17
42
95
59
40
78
52
56
48
-2
36
20
-18
6
-25
6
-3
-19
17
-57
-77
-65
-36
-20
-33
-17
16
75
44
24
59
-5
-9
38
-4
8
-7
9
22
-32
-2
-5
-16
-12
-75
-40
34
11
31
33
-9
-54
0
43
-1
-45
-48
2
-25
1
11
-4
0
-20
-4
52
24
23
45
-22
40
-98
-45
1
0
-50
-34
-20
-8
17
14
8
38
-21
16
48
15
59
-23
10
31
13
-11
2
-34
18
-68
-47
-14
-9
-76
-96
-21
-39
-25
-8
-25
30
-24
-3
3
60
57
18
-20
13
21
49
43
-3
34
87
84
86
57
8
16
25
73
11
-27
-31
24
8
-12
10
-60
-46
-9
-13
33
-27
-52
-19
0
57
40
22
23
25
42
-36
-12
13
-45
-23
6
-13
-6
13
43
41
15
-52
38
23
6
10
-50
-18
-40
6
72
35
58
19
-7
12
53
7
-24
0
2
21
12
9
22
20
-4
-16
44
9
1
17
25
34
9
-44
-13
-1
-25
-2
-50
-35
-13
-70
27
-4
11
40
57
41
-2
30
23
62
14
-4
26
54
50
92
90
57
-8
29
-29
-79
32
38
1
-129
-17
69
16
73
-51
-8
40
57
115
56
46
20
64
66
58
24
12
61
24
-31
-42
-15
19
-30
-13
-58
-47
-13
-27
41
11
12
-2
20
31
15
46
21
22
-26
-24
-42
-45
-41
31
-15
1
-19
-31
51
17
43
9
9
20
51
26
28
15
-6
40
10
-23
16
52
118
82
71
16
34
65
0
-13
-11
-48
-12
-31
-60
-1
-58
-93
-80
-24
-8
-100
-69
-22
-33
-10
23
51
12
9
-37
46
33
10
-19
15
43
44
28
28
22
49
0
-24
-9
52
-9
11
18
-24
12
31
2
18
6
3
-16
13
-13
-28
-9
17
13
-34
-59
0
5
37
-75
-12
-28
-11
15
-65
-34
-17
-12
-8
-20
2
22
-39
7
-9
35
62
-48
-18
1
-8
-10
-34
-26
-13
-57
0
70
-15
-65
-67
7
-23
-46
-51
-52
-26
-12
-13
50
-29
-38
-39
-24
-32
-6
-49
-22
-41
-39
-29
-44
-5
-28
-42
-39
-6
8
38
2
1
-42
9
-7
26
-20
-23
23
7
20
-3
-12
-8
-15
-15
-2
-14
19
13
23
-25
2
7
-15
-26
55
41
-22
-41
-47
5
10
-18
-8
-16
7
-42
44
12
54
-46
-42
15
-26
-22
-13
-43
-8
-16
-46
-11
-52
-22
-55
-34
-38
-16
-5
-23
8
-12
-42
-27
-50
-19
-24
-7
-42
-37
-50
-7
-7
8
48
-26
-11
8
-52
-14
-43
-13
34
-22
-6
48
-20
-14
-28
-9
6
-10
-38
-18
-14
-43
-52
31
7
-39
-11
-36
10
53
-18
-27
-37
36
-42
-17
-19
33
18
32
4
43
52
-8
25
-52
29
-31
-54
-10
-10
-52
13
22
-47
-9
18
10
-39
24
50
11
-52
-41
-39
21
51
7
-50
-16
-18
-54
21
15
-13
-44
-47
-39
-13
-22
-11
-6
-32
-6
-29
-20
-41
-48
-17
-35
-16
-44
-19
-31
-15
-6
-45
-44
-8
-32
56
53
-20
-36
-44
-16
-15
-53
-16
-16
-46
-17
-51
-16
-7
-33
24
-24
-5
-53
-15
-30
-17
-32
-40
-7
-49
40
26
23
-52
-9
40
34
-41
-5
-54
-17
8
-33
-37
-25
-54
-50
42
22
9
32
-6
-39
38
-36
-40
-29
-45
-26
-50
-22
-17
-30
-49
-30
-26
-55
-19
-44
-43
-47
-47
-51
-9
-34
-24
-32
-27
-38
-19
-33
10
-5
-30
-49
-34
-28
10
-45
24
-17
-6
-5
-12
-37
-29
-8
-47
-47
-24
56
-10
-16
-30
-22
-28
52
0
-27
-32
15
44
-41
-51
-10
28
19
-18
-28
45
-9
3
-15
9
8
40
-23
-24
-8
-24
-29
-36
-20
-44
-44
-35
-18
-37
-18
-46
-55
-55
-31
-15
-35
-50
-34
-11
-54
-35
-9
-42
23
28
40
14
-3
8
2
44
9
-42
34
0
-16
-4
6
-14
-22
-1
-23
-23
-29
19
19
-21
5
17
22
1
-32
-29
10
23
-20
-52
-18
-20
-19
-25
8
42
-17
15
6
35
17
-6
-2
-23
-15
-4
-32
-15
33
35
26
-13
-40
-17
41
-17
-62
-29
-8
22
-80
-8
13
13
-16
-64
84
74
0
16
-30
-26
-31
20
58
44
-33
-39
12
49
6
-69
-12
-8
-20
-33
-62
-73
-44
-39
-72
8
-9
1
36
-31
-124
-69
-12
-3
-7
-79
-41
-39
40
-10
4
-72
-8
47
-25
-42
8
12
3
-67
-46
-15
23
-25
-57
-30
-7
13
9
-5
6
-35
55
20
-14
-52
2
16
37
-50
-63
-55
15
23
-79
-48
-32
45
19
-57
-74
-53
-25
10
-33
-7
52
43
22
-16
18
32
22
2
-37
-108
-30
19
20
-56
-65
-58
46
40
-53
-70
-42
-2
-10
19
-67
-57
-46
-18
-4
-8
-78
13
36
-18
-26
0
26
-12
-36
33
83
35
-59
-83
53
16
54
-31
-41
-31
-24
27
-25
-14
34
-42
36
-39
-20
7
37
47
-14
-45
-33
13
24
-9
-32
-36
-82
-56
0
-6
-34
-41
-25
15
25
0
-29
-31
15
-19
-57
-24
0
56
-34
-72
2
40
-18
-97
-33
-36
-85
-63
-52
-7
19
-13
-39
-19
-25
63
29
21
6
-19
44
59
-12
-68
-77
18
-16
-47
-97
-73
-216
-132
12
-44
-32
-96
-82
-13
-92
14
21
-53
-105
-90
2
20
37
106
58
7
10
96
32
-138
-31
-93
-69
-101
-12
-47
0
-36
-65
-40
-4
35
55
-7
9
-12
27
47
14
-36
-88
-13
28
-41
-100
-34
9
-6
-37
-10
-33
72
70
60
-22
-27
48
-7
-16
-16
-6
14
-64
-26
-46
-37
-46
-24
-4
-59
34
-2
18
42
-26
12
-136
-51
34
-12
27
-42
7
59
37
18
54
97
58
11
41
137
69
49
-2
23
-7
25
32
5
-2
0
45
34
17
-29
35
48
20
-18
11
26
41
23
-57
36
21
68
18
-20
42
48
63
-34
56
1
-28
-11
-82
12
35
-42
4
-44
21
15
83
42
-21
25
40
44
77
106
10
3
-15
64
33
17
6
-35
3
5
-10
-42
-36
-18
-6
-52
-6
-73
-18
34
-47
-27
-9
45
44
21
15
-32
7
41
14
-12
-28
8
24
-34
-15
-31
-4
-37
-25
1
6
6
-49
-8
46
-7
-20
0
9
6
20
-7
19
32
15
-15
9
10
11
-37
-27
-20
-11
-36
3
29
4
3
29
59
21
27
7
3
-19
-19
-12
14
2
-61
-69
-21
30
7
-68
-13
-5
43
0
-17
36
2
-14
-4
2
3
-6
5
11
-67
-30
-19
22
-18
-57
-10
39
54
15
3
-19
-3
39
6
-1
-14
-1
39
-25
-34
-23
43
33
-16
-86
-42
5
1
-4
-40
12
20
32
-12
-11
2
15
1
-17
-17
-29
-3
0
-16
-14
-30
13
60
9
0
-22
0
-14
32
-5
-13
-15
3
24
-55
-76
6
20
-7
-45
16
5
19
7
33
37
0
-6
11
-34
-37
-36
-37
-8
10
31
14
49
-37
20
22
17
-23
-24
-37
48
29
38
-10
-22
38
47
16
14
6
-16
26
10
8
-1
20
-5
16
6
0
-33
-27
45
26
14
-15
49
21
-58
-28
23
3
-33
-37
46
42
34
-51
-64
5
54
-28
-67
-89
-3
35
28
21
-29
-49
-4
29
-6
-79
-49
-24
39
-7
-16
-59
-208
-116
-89
-44
-18
-106
-129
-167
-224
29
72
22
-121
-138
49
101
94
114
101
-70
-75
-9
-111
-140
38
39
-17
-91
-45
42
32
-79
-103
-73
22
38
50
-10
-2
-45
37
25
-1
-94
-60
3
-33
-21
-36
-18
-24
5
-22
-8
-10
68
56
13
0
-2
57
18
26
1
-13
-43
-20
26
-25
0
-23
23
27
50
-30
-15
21
105
48
-3
-45
-39
26
23
12
-96
-53
31
16
31
-19
23
22
-29
-1
71
-36
-23
-13
34
11
40
49
0
-17
-48
-1
40
-15
-42
-28
52
28
11
-17
0
17
4
25
1
12
31
1
-4
36
45
58
5
20
5
-29
-15
24
12
1
-67
18
1
-16
9
-12
46
11
30
18
23
19
46
21
-21
-29
-15
40
-21
16
-41
25
-9
5
4
-3
11
5
-16
-25
-13
0
50
50
-3
37
41
34
-17
-26
-27
-25
-15
-6
-15
-23
-38
-7
-21
-20
-17
-8
-22
-47
-52
-12
-19
-18
-23
-53
-51
-39
-48
-55
16
29
48
28
46
26
12
22
31
26
-46
-24
17
46
11
-8
-43
1
-15
-16
-16
-31
11
15
-14
-37
43
30
-28
-22
-34
42
-24
-31
-20
-24
-10
-12
-14
-39
56
-31
-5
-41
-40
51
20
-23
-12
-55
-32
-34
-5
-54
-24
-42
-16
-14
-44
-9
50
17
-8
-12
-19
55
18
-37
-9
-20
-21
-35
-21
-31
-52
-14
-32
-38
-21
-41
-36
-34
-56
-42
-15
21
18
-12
-52
-19
32
14
53
-38
-25
-26
-24
10
-28
-11
15
9
44
21
-12
-30
6
12
40
-34
-16
-31
41
39
-7
-16
-34
-54
-36
-55
44
17
-19
-22
-14
32
36
36
27
8
-9
-15
-16
-17
-14
45
11
-7
-16
17
7
32
-32
-7
16
55
52
13
-11
-51
-24
-13
-22
-15
51
-41
-29
-46
-19
-9
-41
-6
-53
-28
-26
42
15
-21
-50
-19
-40
-38
-51
-16
-54
-20
-35
-23
-50
16
-22
-7
-17
-39
-51
45
-47
-6
-54
-17
27
28
-25
-14
-17
-6
8
27
-19
-43
-50
29
34
-38
-13
-26
-25
-37
44
-34
-28
55
-26
-12
-6
-55
23
-50
-46
-40
15
14
-32
-21
-51
-48
-6
-6
24
35
-53
-54
-10
-44
-44
-45
-54
-15
-14
-48
-35
-51
-46
-27
-36
24
37
-53
-28
-26
-41
-18
-47
-15
-40
-33
-16
-42
-20
-39
21
38
-32
-40
-23
9
34
50
-35
-51
-38
-13
-36
-52
-33
-11
46
24
10
55
3
28
40
48
-13
-44
5
39
22
-45
-22
-51
23
15
-38
-29
5
22
-12
-6
-10
-43
-23
-44
-20
-30
-41
-32
-46
-50
-8
-53
-32
-30
-46
-30
-50
-52
-18
-42
-26
-27
-40
-22
-10
40
51
52
50
18
26
10
20
4
24
-11
26
43
-8
39
-52
-24
36
-2
13
-54
-8
13
50
12
1
19
31
-48
-13
-19
-4
-32
45
40
-32
-40
-45
-39
-44
-51
-19
23
-19
42
-39
-44
-22
-31
4
-12
64
44
-36
-20
10
5
-4
3
23
-64
-32
-10
-3
-15
-28
6
2
-13
-44
-26
-4
14
37
25
-21
4
-2
0
-20
-18
40
-3
11
9
-8
-21
-36
-36
-8
-7
-10
-4
-25
-53
30
16
12
9
0
-15
29
4
-22
-12
-29
34
-22
-7
18
-59
-15
-10
-9
-4
-89
9
40
8
-4
-21
8
16
23
6
1
5
1
-30
5
-6
51
7
-7
-7
-21
52
-12
-5
-4
-23
4
12
-22
-6
-57
0
2
6
0
-107
-8
-1
-29
-23
-44
72
17
-40
-41
23
92
5
-19
-26
14
26
-12
2
-12
0
21
20
-23
14
-6
25
3
10
-14
-14
43
31
18
-45
-40
-13
13
16
-8
-58
-19
1
1
-1
-34
-1
4
47
15
-11
22
15
23
1
3
11
-19
30
-27
-7
23
-22
16
-7
9
47
31
19
32
45
23
-49
6
-3
0
-5
17
25
-3
5
37
20
-11
-2
27
14
25
0
-1
-37
5
4
-11
-4
-50
11
-3
-8
2
4
-48
11
-12
81
21
-5
-13
16
33
10
8
-21
3
45
46
-24
38
-11
-50
2
14
-5
-54
-74
-87
-78
39
175
215
-85
-105
-12
100
130
15
-40
-52
79
182
16
-37
-53
-38
65
77
-59
-36
-65
-68
-62
-40
7
37
59
-45
-22
-47
7
50
51
-13
-18
15
44
39
1
-31
-30
-4
69
31
-29
-52
-72
28
-25
-40
-26
2
37
14
17
-23
-53
5
14
47
-7
-25
8
-24
6
-26
-24
-18
-10
-12
-32
-18
53
36
-42
-18
33
23
60
-19
-15
-5
24
-57
-49
22
32
-46
-90
5
16
50
-66
-96
32
3
42
33
54
-33
-6
-36
39
-10
9
-34
17
10
17
-9
-16
-14
-26
12
-17
17
15
-21
-14
0
3
-7
43
-29
-73
-3
-62
15
-13
2
-30
-45
-6
25
46
-17
-30
-6
19
12
19
8
-39
19
-20
25
55
-77
-6
-32
-13
10
-81
13
-10
-14
21
33
-20
-2
-21
-11
-3
-17
-25
-10
-11
22
-9
-5
-26
47
46
-8
20
-24
-10
-28
-18
37
-40
14
0
-36
6
-68
-34
83
4
5
-26
53
-98
25
50
89
75
28
28
-10
-38
6
-11
-40
-8
-27
-62
-9
-47
-48
-73
-31
40
4
-54
-90
24
37
43
57
36
-5
-9
9
-36
7
13
-40
-62
22
65
58
-89
5
38
-20
14
-122
2
5
-10
31
-50
-54
7
68
63
30
46
-12
0
51
-71
41
28
15
22
-21
10
21
5
44
8
12
-50
-17
45
97
63
5
-18
7
-14
21
55
-4
6
-66
-8
39
-29
8
-21
43
37
-17
-16
-37
7
-26
-27
10
73
57
-4
-35
0
-68
2
-65
-3
3
-77
-69
-40
36
39
-119
-31
-24
5
14
-50
39
-48
0
15
-130
-108
12
95
115
3
-52
-25
-17
-1
38
46
-28
10
54
-24
-27
-14
-46
-48
-25
19
-33
28
49
41
-45
-39
25
44
58
48
5
15
3
53
32
-4
27
36
-6
-19
29
34
49
-41
-22
-40
-53
29
61
14
-68
35
54
9
36
52
64
15
33
18
9
10
99
54
32
40
99
53
7
-24
41
36
-89
18
-36
-64
-58
-3
-1
-11
-31
-49
36
29
11
40
46
56
-13
-21
-39
58
193
60
3
0
58
44
-19
-18
-10
-47
-62
25
52
24
-4
2
29
60
-22
-2
23
33
52
5
76
51
33
29
24
-55
13
19
-53
-62
-19
1
30
-3
21
41
52
36
-12
9
-25
31
4
-12
85
34
-41
-45
-44
26
-49
-13
41
73
0
-78
-5
39
-108
-167
-25
55
8
-45
-60
-7
10
40
-82
-125
-13
41
-2
-80
-52
24
69
-34
-184
-1
42
95
95
-27
17
5
0
40
4
61
-65
-39
-40
15
-21
-71
-22
-39
-23
-7
-7
180
-3
-42
23
67
136
-18
-203
-123
-42
-109
23
-39
0
-81
-162
2
36
83
-111
-186
-73
-7
28
-23
-43
-21
-11
-35
-84
90
-24
44
-69
-24
15
-38
-7
25
-25
-37
87
-11
-11
3
51
98
38
12
-17
-10
17
62
-2
-9
-14
-50
-5
-24
20
-18
-35
-12
59
20
33
-37
49
112
18
0
-41
31
52
4
-41
3
-26
-56
-59
-72
-19
-44
-33
-6
-35
-56
-34
13
25
48
-16
17
23
9
19
-26
7
15
1
19
-20
-56
-21
-56
-28
65
25
24
35
-16
-25
0
0
-12
-27
-32
-19
13
37
30
-29
37
52
-3
8
-18
26
4
-27
2
-69
-16
-44
-42
-60
-48
3
-9
-22
-7
-15
15
19
-5
13
-20
41
55
-8
3
-17
37
31
-47
-50
-23
-17
-28
-13
-19
-22
17
-28
14
-13
-38
-11
20
8
2
-60
60
38
-11
11
-46
40
13
5
-24
69
101
78
54
-18
14
29
69
6
-53
-4
19
24
-5
23
-23
11
-12
0
57
2
-27
0
-29
21
-11
8
-23
-4
-22
25
9
1
24
-16
43
-16
-21
10
6
36
-7
11
-22
6
-19
16
12
-3
12
-28
27
55
48
7
5
0
31
-7
4
-11
-3
13
18
-18
-21
49
35
23
-18
-17
44
10
-11
0
-18
-17
-21
-62
-63
-7
-61
-68
-52
-29
31
-41
-24
20
56
37
-25
-33
-2
36
2
37
19
51
20
67
57
29
12
58
23
19
-23
-99
-71
-48
-57
-35
11
-51
-81
-80
-82
52
128
48
47
10
91
126
23
-13
-26
-35
-16
-31
-20
-82
-34
-49
-16
-21
-47
16
10
-44
-57
-48
-12
55
2
18
46
33
44
-35
-1
-31
-19
-54
-25
21
3
-3
-12
21
9
-39
-8
-31
32
6
36
9
8
-51
0
12
3
8
-10
165
146
96
41
3
52
31
10
-33
58
-8
29
2
-26
57
-1
-23
-22
-40
-20
-31
-7
-33
-43
34
-6
35
-20
-21
-28
-20
-5
15
23
-14
30
1
-22
29
33
9
-29
-47
-26
19
2
-4
-56
-3
31
54
49
37
-16
-3
1
49
53
-4
5
0
24
-30
-14
-25
11
12
-41
-40
-26
-4
-28
-43
-63
-20
0
-20
-15
10
-53
-12
16
2
21
-103
2
20
-52
-32
-104
-27
-1
0
-17
74
-31
-48
-44
-49
11
-25
-10
20
-9
3
29
93
38
-26
61
40
18
-10
21
36
40
66
22
24
-32
-53
31
7
-68
-29
-55
-31
40
-1
-5
30
34
61
0
-3
16
42
-8
-22
26
33
53
10
10
-22
-29
17
-47
-31
15
46
0
42
-30
0
-19
32
20
-30
1
31
47
4
-24
-17
-24
-8
-20
45
-28
42
6
13
-11
-61
-32
11
2
7
-15
26
16
24
-32
-11
18
39
-25
4
15
30
59
-23
23
75
43
27
-12
8
-61
-15
16
6
16
-27
-24
-19
34
0
0
15
32
4
-13
-17
0
28
-5
-8
63
93
48
-27
-14
70
80
68
47
0
-2
5
23
-2
-32
-19
3
35
-13
-66
-46
27
-38
0
-12
-58
-9
14
28
11
10
28
43
30
15
-46
46
-29
39
34
18
26
-12
-22
5
18
28
-6
23
37
19
52
-7
-12
37
-29
-5
35
48
41
-22
-16
2
13
-23
-21
8
-4
-36
-67
6
19
-1
0
11
-3
9
34
14
40
-21
11
-41
-17
45
-64
-39
-52
-6
68
-29
-26
-37
39
58
18
-7
-63
-16
16
75
57
51
22
57
-77
1
76
104
102
-100
-83
-91
-66
51
-104
-56
-54
-42
-2
-103
-55
-57
-110
-96
-16
1
20
62
101
-15
-23
-22
-25
59
-83
-63
-36
38
52
-56
-52
19
39
8
-6
-56
-95
-60
21
0
15
62
55
27
-1
7
-18
0
33
-5
20
-27
15
4
20
1
-53
-1
-12
60
59
-2
25
-3
51
70
23
13
25
68
106
119
16
-11
89
84
35
-2
-30
38
0
0
1
-40
-10
17
-11
-15
-29
-84
-75
5
-6
23
0
31
52
12
-6
-22
12
49
-27
-18
33
54
-13
-18
6
46
33
-34
-6
43
25
31
-2
5
6
75
35
50
-10
0
46
14
43
-5
-64
7
21
66
-33
-42
9
23
-1
-23
30
1
-14
-62
-50
-3
-38
-18
5
21
7
-58
-9
38
8
37
-40
-5
-34
-48
-25
-12
34
62
2
-49
2
-8
6
-60
-18
-56
-55
-45
-30
-55
-14
-53
-49
-7
-5
-36
-28
-40
-24
-33
-50
-37
-36
-22
-50
-46
-13
-49
-42
-22
6
0
-32
-3
-11
-23
29
24
10
-4
-4
-9
1
0
34
-23
-20
23
26
-20
6
18
11
21
-7
7
-12
54
-29
-43
-9
-34
40
-10
-23
-45
-44
-21
-13
-55
4
-41
-54
-23
-31
-40
-55
-40
-17
-39
-11
-51
-6
-14
-19
-34
-46
-33
-24
-12
-40
-41
-37
-50
-20
-41
-32
-43
-11
-43
-43
-52
-52
-11
-14
-30
-44
-16
-28
-44
-41
-35
-55
-43
-39
-40
-33
-32
-40
-22
-24
-34
-42
-33
-26
-30
-27
-27
-35
23
-8
-37
-21
17
-38
-11
-54
4
-55
-18
-26
-47
-38
-51
-34
-15
-54
-53
-44
-36
-39
-39
-21
-7
-32
2
-35
-32
-47
-36
-45
-30
-53
-53
-52
19
19
-39
-5
-16
40
11
36
-15
-21
46
-26
-8
10
-39
-39
-25
-15
-33
-18
-12
-31
-49
-41
-10
-43
-49
-27
-33
-39
-49
-25
-5
-18
-7
-29
-29
-5
-27
-42
-6
-31
-32
-16
-10
-12
-35
-18
-20
-29
-9
-25
-52
-54
-38
-36
-53
-34
-24
-40
-27
-16
-33
-34
32
-19
-40
15
-39
-10
32
32
7
-51
-35
-12
-37
-13
-48
-55
-39
-22
-49
-51
-35
40
54
-37
