memory_initialization_radix = 10;
memory_initialization_vector=
10
-6
-10
-7
-37
3
12
-23
17
7
-19
29
-9
-28
-16
-58
-68
33
-75
46
23
-29
-61
-46
-73
65
18
3
-29
-50
-58
13
35
-6
-74
-2
-77
-17
34
-31
-36
8
-90
-26
-29
6
22
7
-99
22
-55
38
22
9
-123
36
-71
29
61
1
-59
-8
-2
-4
-63
-62
-161
4
4
59
0
-16
-139
19
-80
4
8
-20
-115
-58
-116
-13
24
-24
-34
-97
-6
-15
66
44
-155
72
-2
69
35
-70
-138
21
-35
76
57
39
4
-74
-69
-6
68
-14
37
-66
-10
5
-7
39
44
-13
60
-37
-31
16
-144
22
-78
102
28
35
-176
19
26
86
86
135
-84
-114
-39
-31
8
54
31
24
29
-100
-9
70
52
35
22
-8
-68
-26
-67
-38
89
-57
12
54
-45
6
110
-67
-47
38
-62
-17
82
-44
-57
-44
0
26
63
-47
-60
14
-24
53
28
8
-15
5
-47
-19
30
-52
-41
17
-61
53
26
-56
-11
-66
-110
39
8
-35
-48
-58
6
95
-34
-33
22
-40
50
2
-58
-6
10
-28
-61
59
92
-15
-71
-5
-74
110
43
43
-30
25
-52
58
20
-6
59
6
18
-15
-33
8
3
0
24
-21
-16
-5
45
45
-131
103
29
55
13
50
-11
99
-5
0
71
63
-26
-14
-66
-10
57
74
18
-32
-15
-11
35
101
88
30
27
-13
-1
22
-131
16
6
54
68
75
-43
58
-37
28
27
32
20
-5
-27
56
24
74
34
-48
-56
4
14
5
-18
33
-39
5
-12
-10
134
4
-79
45
-60
-91
20
6
-51
27
-23
-78
-12
-1
-108
75
-6
12
-65
-34
-72
45
58
0
-32
-52
-85
29
-15
-16
-92
-12
-54
15
-92
-89
-80
43
-44
86
53
20
-42
23
-68
50
65
20
35
26
-65
0
61
28
15
-21
-51
10
31
22
-121
83
-17
24
-47
-90
-77
71
-14
32
72
78
11
-47
7
48
76
83
47
-65
10
-25
-5
45
30
-29
-31
-54
-27
0
-60
21
-91
86
93
-34
-68
16
-15
64
98
131
29
-96
60
-82
45
88
37
0
12
-77
-36
-41
76
-15
-13
-42
-33
-51
-16
-53
5
41
62
93
-6
-24
29
-87
-30
22
68
-65
56
-98
-63
-65
11
-4
-42
-37
-11
-61
8
-64
-31
-70
-44
-1
-95
19
43
-14
-33
16
-149
35
37
29
7
60
-77
17
-38
-14
12
47
-41
-4
12
-18
-42
-46
-4
6
31
-51
-45
-4
-19
-7
28
38
-35
-38
-138
41
-4
57
44
47
-66
-40
-9
7
41
67
55
-20
-39
-41
-5
6
71
-24
-22
-31
-21
-26
-3
19
-26
39
-70
-36
-121
5
-69
-8
37
58
-37
-25
-84
14
16
55
1
0
-39
23
-15
36
9
-10
-55
-2
5
-20
2
62
2
17
2
-43
-29
60
-91
47
7
27
-79
32
-52
34
36
52
4
-70
-97
19
32
22
34
-16
-37
7
-20
-22
8
-11
-61
-29
-35
-28
-3
45
-72
33
16
13
3
63
-100
45
10
-11
12
-42
-103
43
-34
42
57
-43
-46
-27
-38
17
-32
-16
-12
20
-68
18
-158
98
-8
72
-14
147
-100
8
-2
-6
69
104
1
-40
16
-106
-15
90
45
-7
35
-28
-75
-3
-28
6
13
21
-81
3
-98
105
-67
67
6
59
-136
-11
-45
33
29
123
-85
-80
-94
-77
-8
82
-17
11
-68
-3
-15
15
12
54
34
19
-110
-83
16
128
-79
45
6
-16
-86
19
-156
43
-27
20
-62
-95
-153
47
0
-58
-82
5
-60
40
53
57
33
28
9
-68
-27
-75
83
129
-135
30
20
20
100
55
-205
33
-27
-39
118
-73
-152
54
-18
-109
105
-81
-22
53
32
-1
-3
-16
51
-74
-66
-47
25
60
-90
-18
-28
-12
113
3
-108
-63
-24
-55
57
-76
-65
-20
-39
-12
127
-109
42
1
22
18
59
-58
28
-69
-39
-71
-64
61
-56
6
-38
-95
-53
93
-47
81
11
80
-41
17
-25
70
70
57
14
-35
66
-45
5
54
-106
-38
31
-53
-97
-69
-100
44
-64
26
-29
-95
-11
100
-67
3
73
76
-3
-53
69
-16
62
76
-25
-52
79
-97
-34
29
-76
-1
3
-43
-57
-158
-38
85
-12
-1
25
12
-40
70
19
10
33
121
-22
-84
96
-93
-44
44
-5
0
123
-87
-55
-15
-96
49
22
2
50
-27
-45
32
71
2
59
79
-19
9
100
-65
20
31
-45
-47
46
-74
-97
-55
-79
27
-7
-67
-74
-91
-18
20
18
-22
39
106
-60
47
80
-56
-1
66
-79
-49
50
-19
-41
10
-99
-4
-25
-25
-96
-68
-116
30
-17
-1
-59
-20
-38
-59
-58
-36
-48
-26
-2
-7
-65
-5
-1
3
-62
-30
28
-24
7
-15
-47
-5
-66
8
-36
-53
-18
-27
-62
-69
9
-3
-4
-38
-24
-71
-11
-53
-58
1
71
-11
-41
-70
-35
-33
13
-68
-14
-44
-46
35
-70
-29
-7
2
-11
-65
-61
-41
-71
-17
-47
-24
-69
-37
-43
-48
1
-58
20
-25
-70
-38
-3
-31
-1
-45
-8
-56
-5
-57
-62
0
54
-8
-49
-63
29
-22
-42
50
8
-2
-41
-42
8
-63
-53
-59
23
-22
8
3
4
-15
-68
8
-59
-47
-19
-16
-50
-56
62
17
-58
-48
31
-38
-1
-32
-56
4
-43
-26
-31
-26
-3
42
-6
-67
-27
-70
-16
14
-45
-4
28
3
-26
-53
-6
-15
67
65
-20
-22
-67
-39
-5
-37
-14
45
12
42
-58
-90
-53
11
-55
76
42
31
-65
39
-72
34
17
22
-12
-48
-28
-17
4
47
0
-10
42
19
-40
7
-119
-6
-4
56
14
-33
-124
27
-71
24
67
46
-75
-1
11
-41
9
87
1
-1
63
-51
-24
26
-17
-44
-25
-57
-61
-81
-41
-26
-76
71
65
71
-49
-12
10
22
5
83
-15
11
84
-54
0
39
-52
13
27
10
-21
-44
-3
11
11
9
15
-52
-9
-18
46
-27
16
97
-12
-25
50
-34
5
75
-15
-38
14
-19
-38
-33
-86
-13
-61
10
23
-17
-60
-12
-82
-16
6
-33
30
9
-10
-23
-5
3
73
-16
-21
-26
-72
-76
1
-40
-115
-7
-57
-43
58
-13
-74
28
-23
-4
2
-62
-36
-13
-26
-41
21
9
-4
15
0
2
-38
-66
-9
-6
39
-2
-64
-25
-14
24
-34
15
-92
-37
-21
70
27
-4
-48
-9
-34
20
104
42
5
70
-7
65
-12
-24
1
39
-51
52
-14
-24
-17
7
-84
72
12
-45
12
-60
-61
74
11
-34
35
-85
-64
55
48
38
71
38
-26
60
48
-11
54
19
28
38
-6
-47
83
-26
-22
-18
-9
2
64
-52
-50
36
33
-24
85
-2
-70
95
36
74
64
-16
73
-30
-32
-18
94
-83
59
-3
-18
23
27
-56
52
-85
-70
5
124
47
-5
-1
-41
-35
24
53
7
62
45
-17
3
-35
7
-72
-45
6
-24
-65
31
-35
4
28
25
-86
54
-57
-45
-26
34
66
0
-2
-85
-27
43
43
-42
-1
36
14
79
78
23
60
13
-25
68
25
34
94
91
-5
133
93
-44
34
109
-38
136
44
-34
51
4
-41
153
-56
-69
78
-15
-34
141
-50
30
-17
3
-49
116
-44
79
-47
-43
-40
150
0
96
-60
-29
-2
125
-2
65
-29
31
-28
140
31
-37
25
-6
-51
109
-184
-6
-117
-38
-58
109
-89
45
-49
-107
-57
17
-105
56
-85
-82
-156
90
-37
24
-87
-7
-113
58
32
-28
-21
-25
8
-32
-62
-68
76
35
-60
-73
-142
-67
-28
-16
-5
1
-123
9
1
23
-33
-42
-60
56
-74
-31
-76
-71
-35
72
-37
-31
-54
33
52
-9
118
78
-33
-59
-28
21
65
32
-8
-26
-40
-20
95
82
9
-37
4
-31
68
66
42
-129
-101
22
14
14
-5
-48
17
-41
77
27
-45
20
46
-8
32
-1
-38
-41
-42
-73
85
53
21
-12
-18
-110
73
69
55
-27
-26
-112
79
49
15
76
98
-57
69
34
-51
107
34
-61
20
67
-22
73
-24
-43
14
-4
-40
122
-37
-102
67
21
11
46
26
-137
22
0
14
75
19
6
31
12
-43
74
-4
91
-22
17
14
105
-59
58
1
-42
-71
148
-8
-40
35
-59
-79
106
-7
-130
3
-50
-19
67
-67
65
-73
26
26
31
-112
121
-79
15
-14
22
-44
103
-58
-57
-59
48
-35
-33
-64
-32
-79
56
-49
-46
6
-20
-26
-25
-37
50
-52
2
10
-88
-7
35
0
-39
40
-55
-12
62
29
-3
-60
-92
22
17
-13
-20
24
-53
-43
-8
15
23
-11
-108
0
26
35
-33
63
-113
98
-42
-8
-21
28
-78
85
-28
-13
47
61
22
-17
47
-93
17
95
-25
40
45
-73
-15
23
-101
41
3
32
5
93
-78
63
-29
-9
21
98
-15
-47
9
4
-13
84
-81
-60
32
-39
-46
43
-26
50
31
31
24
23
9
62
1
63
17
21
-64
-16
-81
51
-1
77
-28
-40
-75
-17
8
10
-144
-67
-62
34
-10
-20
-133
-31
-42
47
4
-9
43
8
-69
29
2
-46
0
-21
-74
22
-5
12
7
-88
-87
37
27
-83
-61
-39
-115
37
25
12
-32
-106
0
52
22
36
80
-27
-27
-44
-11
-49
21
-42
-36
-11
-2
-68
54
-11
-44
9
-55
-53
19
-17
-21
-36
-46
-21
-26
-60
-30
-8
-7
14
-44
19
-47
27
65
60
71
-22
99
28
-10
19
43
78
28
-47
-12
-17
21
83
19
-105
22
32
-36
-23
52
-98
-57
1
-85
-30
60
33
47
107
8
25
111
-37
30
54
2
75
51
-49
-43
23
4
74
48
-134
-60
-50
-19
114
11
-54
-82
-78
-74
45
86
78
20
111
-58
73
36
-57
-1
53
-49
44
36
-94
-65
4
-69
115
-10
-112
-74
-133
-90
117
-10
-45
-41
-121
-53
64
132
10
11
67
-31
33
71
5
27
65
-16
48
66
-97
-53
-6
-54
110
27
-96
-119
-132
5
89
41
-45
2
-22
-49
109
95
45
30
64
-75
27
81
-25
27
-3
-38
124
43
-111
-89
-49
-41
106
-4
-46
-73
-76
-19
80
49
4
58
31
-99
5
-38
15
-10
4
-85
-29
-18
13
14
-13
-38
-41
-10
-9
-35
-2
-90
-49
-58
37
10
41
-48
-37
-47
-68
-28
-7
-4
-23
7
-26
-67
-70
-22
-4
-72
6
-19
-46
-97
-5
-9
60
-10
-18
-47
-32
-21
55
63
66
13
48
-58
-9
25
-10
63
-24
-9
-20
-54
-50
-2
-2
12
58
-87
-111
-95
79
-88
38
8
-53
-117
37
-48
58
50
33
42
21
18
4
15
9
10
-65
-58
-10
-59
-135
-44
87
-59
41
-18
-61
-105
38
-31
21
26
24
-85
7
-31
10
95
109
4
-9
28
-103
-32
26
-12
-7
-1
-11
-57
-142
-84
32
-14
57
8
-78
-91
142
-66
67
81
84
-116
-80
37
29
67
126
5
-25
31
-84
-97
16
-13
86
51
-87
-113
-41
-92
91
-20
28
-40
-40
-90
2
-61
41
61
55
14
-29
23
-52
26
56
40
-25
14
-89
-63
-60
18
80
33
-111
-136
-30
-11
139
15
13
-22
-67
-130
20
-65
21
97
100
-57
-97
29
-45
1
52
-19
-13
0
-98
-26
-52
-81
87
110
-98
-84
-63
-54
158
-56
33
-46
-44
-118
8
-31
46
31
94
-66
-107
21
14
-4
80
-42
58
30
-94
-105
-19
-18
24
42
-96
-63
-85
-7
114
-10
7
-30
-59
-39
88
-74
58
69
71
-21
2
-8
-19
29
65
-22
62
10
-15
-68
2
-33
16
48
-33
-41
-88
42
122
7
-40
-34
-23
-26
108
-80
-4
39
24
-62
42
-18
51
-9
13
-48
11
-42
-24
-25
59
4
28
56
-8
-35
-2
-51
-21
29
-20
37
83
-8
59
80
-19
-26
47
-53
101
115
15
-67
-30
-93
102
35
24
27
36
-1
-14
81
-14
-6
49
2
-40
29
-43
-31
36
99
-27
96
-84
-65
23
123
124
34
6
-87
-68
124
102
23
36
-33
-68
-90
2
36
2
-26
-58
-35
-20
-27
-32
11
34
61
-77
18
-49
17
11
122
36
-47
-97
-60
-4
170
66
-11
-60
-18
-29
-5
2
-55
69
35
-44
-54
-73
-19
43
48
-5
-49
-53
-105
20
38
53
-1
-26
-70
-42
49
23
-38
-28
-20
-42
6
-49
33
15
-20
71
50
-49
9
-7
-44
85
-12
-33
2
54
-116
95
4
12
-101
9
-84
39
37
-4
-105
-16
-64
14
73
24;
