memory_initialization_radix = 10;
memory_initialization_vector=
-21
-9
0
-10
12
-35
41
-56
10
49
42
83
-54
-128
-34
13
9
-48
-13
-33
43
12
16
-6
74
-43
21
-40
-23
-8
28
-41
8
60
-43
-14
52
-14
-50
21
26
27
-52
-11
-41
-59
55
-19
-69
1
33
1
42
-12
28
-47
74
-46
-15
-6
12
29
-29
-53
17
0
15
69
20
-71
66
44
-35
-10
31
-12
-57
14
25
50
-41
86
12
-11
-21
-34
46
40
-21
38
-19
-7
-32
-1
-35
13
15
31
54
73
-9
20
28
-28
-13
17
-25
-40
29
-4
-14
66
-23
2
11
-34
-74
74
-9
53
-49
-2
-5
28
-19
-18
17
-25
-3
17
22
97
10
-56
24
-9
0
85
-20
-1
-27
16
25
7
-47
-2
34
-52
-18
17
-35
44
-41
20
57
6
-8
-42
-5
57
-16
3
-42
-18
49
-38
38
14
13
7
-28
65
-12
24
-51
-58
4
27
-91
34
71
18
-18
4
-6
-25
64
23
6
30
69
-50
12
17
37
61
40
22
-27
-38
-20
-16
-21
-3
26
5
66
26
105
61
-1
0
37
33
-17
16
28
-18
6
42
26
53
54
-2
-16
-49
-15
21
15
22
31
-21
-11
-8
-15
-32
-43
87
-121
-14
26
-42
24
38
42
7
72
16
1
-11
55
70
33
-25
55
-34
36
-56
1
13
62
23
39
24
54
36
72
-68
80
101
16
125
43
-15
16
0
44
77
89
84
-1
9
18
-50
-39
-42
69
21
4
-47
87
32
6
3
31
26
9
-5
-68
-1
13
36
-38
74
-7
42
-18
-5
36
-1
-2
-74
-4
58
7
44
46
29
23
-25
31
-79
-28
-13
41
-20
8
31
-49
-48
20
-92
5
-22
77
61
-30
32
0
31
-21
2
-1
39
9
-75
1
3
-86
15
56
13
-102
-3
-36
58
-27
45
-12
120
12
50
-7
-40
-1
27
16
-9
-47
-30
9
3
-48
-7
-4
22
-33
-12
37
-6
14
-1
42
-6
55
2
-12
76
-6
-32
12
21
74
8
62
27
54
120
15
-6
-40
-3
50
0
-38
69
-1
48
5
-12
-3
-10
-20
26
29
47
8
-60
-7
22
1
64
52
21
15
3
1
12
-51
46
-14
9
60
76
49
57
-5
31
-13
-23
42
21
44
-8
-6
27
55
-4
-82
-17
-47
-43
53
51
93
69
35
6
53
-8
-16
5
-5
25
-20
-43
-52
-14
0
0
10
-51
-31
-42
20
67
-7
-9
84
-5
-18
1
-12
-17
-35
-5
-33
8
40
24
9
-69
0
55
6
-13
-11
-28
32
57
-40
-102
25
-18
-4
-17
9
-8
2
16
-10
-160
0
24
34
-27
-20
-31
213
-39
-7
70
-58
37
-13
60
-15
-15
40
52
21
-21
-34
-4
-14
22
40
-45
-2
-58
13
-44
-7
-5
42
1
9
43
31
24
6
-15
-49
-18
-10
40
-99
-24
-35
-19
-55
26
0
-11
23
22
-16
17
57
14
8
51
-38
0
43
-46
-29
44
-30
35
59
47
-31
6
-19
3
-13
-18
76
52
-23
49
30
37
-28
20
19
26
95
-37
8
22
73
-4
12
-29
-27
11
-13
29
52
11
1
-86
-39
-49
-47
-45
8
12
41
32
17
-53
31
37
1
28
-21
-24
5
-40
27
-3
-74
-3
34
8
-62
-41
-56
-28
-23
58
-38
29
69
39
0
-57
17
-9
28
54
-17
2
-53
-61
117
10
21
19
14
-10
-39
32
-6
30
-9
-20
76
17
49
-35
-4
-12
37
47
-4
52
-15
88
-1
-15
9
-19
64
22
-14
83
-31
48
60
3
-59
-44
3
35
49
80
-35
-32
45
-28
22
73
-20
-46
2
-38
-54
65
-18
-46
0
25
-54
15
-61
-18
-11
2
-35
33
30
5
-33
63
16
22
17
-48
7
-15
56
54
-25
19
-45
56
-5
6
-23
20
-16
-19
-36
-30
-26
31
43
-165
-46
10
13
27
-9
-60
68
21
-22
29
-62
13
49
46
-25
-6
-19
-58
-12
8
-53
47
-24
-11
70
60
101
5
42
-11
-7
-54
17
25
1
-3
8
-15
74
35
-61
-23
-7
21
-30
-50
34
33
-44
94
34
-64
-16
-33
-29
-8
-9
31
35
69
-2
31
-54
-41
-46
36
14
69
-35
18
-49
-17
11
75
11
30
31
30
-57
-28
10
-25
-22
-40
36
-9
46
22
-37
2
50
-6
9
35
87
-42
40
-17
11
115
-62
-82
17
30
-52
-65
-33
-48
-27
51
39
57
20
-14
15
-28
44
-60
21
33
69
-2
-77
-8
8
-11
20
55
36
66
-45
-9
-55
-94
-70
49
-6
-43
15
4
24
86
40
-42
30
3
60
0
4
-23
56
-60
20
-31
-7
59
-15
-29
34
0
7
50
52
58
27
-12
46
-10
26
16
-66
0
31
-33
40
49
-41
-29
-65
-45
0
75
23
85
55
15
-11
34
3
-14
64
-2
-77
-28
6
83
14
-37
70
12
-52
37
49
21
-22
50
-13
41
52
48
-47
42
-68
24
5
19
7
-21
-31
-65
34
26
-40
57
14
-24
-5
-11
17
40
-13
19
31
12
-84
56
25
-98
-8
-5
28
-54
-13
-53
8
76
72
8
-47
-28
27
-15
34
39
-49
48
67
-38
-59
37
-15
-24
-3
-20
-64
50
121
-9
-58
-40
27
-74
-66
33
-22
-40
-70
-54
-39
64
-9
32
-24
56
22
-93
44
26
4
29
4
-51
40
1
-9
30
-46
-17
11
-27
9
77
-9
66
-47
0
9
49
-18
38
56
25
9
71
28
59
-44
56
55
-79
-35
-37
-10
-34
43
-38
70
-43
-14
40
-29
0
29
-34
64
34
37
-16
50
6
12
24
71
38
0
-6
32
-3
33
-6
14
74
43
27
54
-60
28
37
-68
36
-54
42
31
-28
7
-7
-22
45
24
-23
16
-5
-45
-90
23
-62
3
-13
17
25
20
11
-38
46
-40
-32
-126
-8
-34
-36
16
48
-52
39
24
13
-14
0
33
-52
-45
-43
4
38
13
-22
80
46
-41
-60
-49
-6
13
1
36
-9
31
20
24
44
-17
-18
72
-20
-7
34
-24
5
-16
42
16
-15
-18
34
1
-23
-83
-15
-31
-37
14
-2
-33
42
-8
-21
-39
9
-42
16
29
-44
-40
-45
-36
-50
-8
42
-60
26
-27
-26
57
-18
10
-17
-33
4
-69
-19
-51
-59
0
35
-15
-39
-12
-11
-21
32
-67
-34
-20
15
-67
33
-20
-24
-51
-59
-9
9
31
-17
-30
-41
-20
-10
-36
-3
-35
-52
0
-38
44
24
-45
9
-21
-34
24
-56
-31
-15
24
-21
-38
39
-51
20
0
-59
10
16
-37
3
20
-31
-12
-2
-21
42
26
-17
-36
41
-16
-2
-27
-64
4
-72
-17
-54
-26
-7
-15
-61
-71
4
2
15
3
-2
-44
1
42
-47
-43
-62
-46
-10
38
-20
-44
14
28
2
41
-68
6
16
-36
5
-26
23
1
-19
-17
34
-20
-85
-25
-27
-27
-13
-15
14
-61
-53
-17
40
-51
-2
-50
-30
69
-6
8
30
-4
41
-33
-59
-27
14
145
-8
-44
-7
24
-2
-12
1
-14
-27
20
-71
-9
-25
18
-47
46
33
-15
-2
28
16
43
30
43
13
-18
-3
19
-14
-4
-11
-31
-32
-61
-43
-39
-32
22
-35
27
4
-25
-43
-22
19
50
39
-15
-13
18
-78
-29
-67
-69
-23
74
12
-40
28
-52
-19
-83
3
-29
-2
0
-68
-3
-42
87
7
-14
-87
-7
11
20
1
29
-35
-2
-32
61
-59
-22
-53
46
-23
-6
7
18
-35
60
-70
20
56
3
29
-48
68
-30
19
-33
-5
-9
-3
30
36
15
-7
-62
12
7
-20
-15
37
-46
11
31
30
14
22
39
67
26
36
-38
-22
0
-24
-32
48
41
-62
-12
-44
-19
-34
43
-33
-47
6
-28
8
22
1
20
-42
-40
63
32
46
55
-39
-62
-23
-75
31
16
-37
16
17
-30
4
-1
-20
1
43
-3
23
10
-6
-65
-14
-5
21
56
32
-65
-23
1
78
27
26
39
32
-30
14
74
13
100
6
8
-9
33
-8
7
24
-34
0
8
-34
-58
-6
-2
-59
-74
-75
-82
-37
22
14
-10
-5
-36
13
-3
-31
4
-67
23
9
-45
-30
14
10
21
-58
-90
-35
-50
4
30
-61
-5
73
-61
-4
26
-34
13
-37
-35
-49
-55
-44
-39
-92
32
30
48
-28
-91
-13
-2
-67
-36
-72
-12
-75
-27
-18
-5
-2
50
-51
22
-38
14
-76
-44
4
-13
-35
-46
37
-31
-68
-11
-20
4
-58
-65
-23
-10
0
17
-4
-48
39
26
-64
14
-40
-46
-39
-20
10
7
-60
-74
-9
-41
-59
-20
-3
11
-56
-22
-57
-11
-68
-78
-33
-26
-24
30
-46
64
-53
-36
8
-41
-21
44
2
0
-19
-37
28
27
27
32
15
24
-80
9
9
-40
-42
41
2
-13
-20
21
56
-3
-38
-77
-26
-6
-8
-15
108
9
39
8
7
-14
31
315
-28
-32
-10
3
5
-24
-38
-56
-44
24
-38
-28
42
-26
-49
37
-3
-14
27
206
-23
-19
23
-10
-59
-35
17
-6
-57
-38
6
11
-53
-4
-15
-13
25
-2
-96
62
-14
16
-21
-83
26
-7
12
-36
68
-53
-110
-3
-33
-79
-24
5
70
-27
38
-44
22
-94
-57
-11
35
-21
-14
26
-80
-75
48
40
-13
-89
-37
-42
-4
-42
-40
25
13
-61
20
16
3
67
-23
49
-28
33
-13
-20
-42
-18
24
9
-23
20
16
-11
4
-13
53
-11
-62
7
16
-58
16
-12
45
-40
-78
-27
71
-17
64
4
19
19
11
-14
5
-14
-45
-30
15
21
-20
-32
-50
1
-66
9
-31
-49
44
3
7
-15
-8
47
12
46
-29
17
-12
-39
24
-34
-57
-2
-63
-10
-29
15
2
-25
19
-39
18
-56
-22
-22
56
-17
19
0
-7
47
2
-37
-44
2
-50
-8
-22
-6
-8
-15
11
-55
-29
64
-71
-13
-46
-29
10
-44
8
7
14
-11
-28
-11
3
-45
13
-13
4
2
23
-14
23
-53
-59
107
-73
12
-27
6
127
68
-56
45
-60
18
-8
5
-71
54
22
61
51
90
67
67
-68
82
-23
-20
-17
50
28
-65
45
62
153
-19
40
33
-25
7
21
-41
-43
0
43
-41
10
-13
3
8
71
55
6
-64
-8
-118
92
11
8
18
78
34
79
-74
13
-38
-22
-27
-78
66
-28
3
-26
67
48
13
69
81
-22
37
-25
24
-36
56
8
-9
-18
-9
-56
47
-56
33
86
-14
51
0
-26
-73
16
-10
-57
-73
-120
20
-6
-31
11
1
-36
-33
147
-19
38
-39
58
-77
28
10
-26
6
3
-1
-42
6
-27
-28
-16
-5
-50
-27
-6
-13
-25
5
86
11
22
49
55
-65
-34
-75
11
20
52
-102
-30
-5
29
47
-3
-58
52
16
-101
24
-12
64
-29
30
-21
-29
-15
71
-29
69
62
-30
-30
1
-32
-94
-40
44
52
-85
27
2
-25
-5
47
31
11
-1
27
86
43
-4
40
71
18
-20
0
65
59
-3
17
-34
32
58
3
-64
-19
-76
-5
31
80
41
33
75
-47
-22
-26
39
-45
2
-22
72
55
90
-54
-11
-22
-75
44
146
-42
-68
54
55
-20
-7
4
-3
-6
-42
-26
-42
53
18
10
33
-36
-77
-48
-41
7
20
29
5
139
28
91
-44
-78
-10
-26
17
6
-74
-17
-36
-38
15
33
5
-52
12
-13
20
39
-10
-55
-2
-3
-21
61
137
37
11
-21
-41
-23
76
-40
-26
126
73
41
24
-28
-32
-54
-39
-8
-94
2
46
-40
20
-62
-1
-25
-24
-9
68
33
-4
31
7
14
29
-39
-20
21
8
-34
12
4
-57
32
21
25
-29
40
-105
-44
19
-3
-54
-13
-40
-24
29
-50
26
-15
-6
32
-56
-19
-17
-16
-31
-30
65
-30
-24
-3
61
-3
-21
61
-25
-6
46
-23
78
11
4
9
64
62
24
34
-31
-37
31
-49
65
75
25
42
22
-22
4
-27
59
31
46
-7
-15
12
-51
82
40
-6
-13
-16
38
24
64
7
8
-23
-9
-9
-33
-8
-3
-2
-25
-3
-15
47
71
-23
-69
-57
60
64
-26
50
-52
53
121
43
8
28
3
20
47
-17
-42
-43
-55
29
13
56
21
61
-7
-73
49
30
56
-22
17
29
-9
75
-27
-14
-9
-49
-30
36
35
-20
49
45
30
0
-13
-56
-9
-37
-28
-25
69
1
71
28
-51
3
-14
-30
38
-49
-10
3
3
-32
-27
-84
-18
-56
-6
23
69
70
28
75
-17
21
26
1
8
48
76
61
62
51
82
42
-6
-30
-24
20
50
51
11
62
51
22
23
50
54
67
49
-22
77
-52
25
-73
-64
68
-17
53
84
10
45
-19
-14
4
-8
-75
-14
21
3
77
17
1
24
-6
119
-1
-42
37
-9
-3
-11
-40
13
59
28
4
-17
45
47
72
4
64
27
-24
97
51
68
61
-33
-39
-58
-31
-23
-19
0
-36
61
8
46
-10
-28
-25
10
4
-3
69
-39
40
12
51
5
84
-14
-30
29
-17
38
-10
-5
44
69
-19
-4
-57
21
59
-14
-3
-12
17
31
-51
-27
-40
11
15
-47
-19
20
-16
-3
-70
-1
-26
-44
-31
-20
-56
-2
-71
-23
-32
-9
-8
4
-7
-22
40
-45
-25
-25
-56
-70
-69
-40
-14
-55
15
-46
-31
-39
-56
-21
-65
19
-58
-19
-35
-58
-62
-3
4
24
-29
16
-40
-16
-32
24
5
-29
-51
46
-7
-38
9
15
-17
-3
-3
22
-17
-18
-62
-1
11
-24
-71
-66
-17
29
12
-38
-27
0
16
14
-66
-9
6
-8
13
15
11
-45
-22
-33
-38
15
30
-38
4
-12
-37
6
-50
-5
-52
-60
-7
31
-61
21
-31
-37
-45
-51
-46
-7
24
-9
-72
41
21
0
-24
26
84
-59
-96
15
-48
-18
-53
-34
17
44
-16
47
13
4
-12
56
58
-47
40
-63
-89
-18
-2
13
29
49
21
11
-38
54
10
5
8
0
-55
-2
-48
-36
-69
-14
0
6
19
0
-41
10
5
-42
28
-32
7
63
10
6
31
-12
2
-2
-15
54
3
3
-57
13
-15
49
-26
15
44
-64
-36
37
-18
-1
17
21
-16
12
69
-15
-49
-38
14
-10
22
-7
49
-35
82
-55
52
56
-18
-67
-60
-25
8
-82
30
13
-14
8
68
-7
34
7
97
-39
-28
-8
-46
-10
66
44
34
-8
76
73
-41
-34
16
68
7
-32
5
30
-52
-11
24
-16
67
21
-18
-3
-29
-19
69
40
-68
22
-128
32
21
-5
-36
26
-33
-37
45
38
-42
-16
12
14
36
-18
10
11
21
7
11
24
30
14
12
-21
5
128
58
-52
44
-18
-36
-2
16
-22
-44
-18
11
-28
14
-25
-35
-2
56
22
-47
-24
72
-5
15
27
13
-46
-2
3
-56
15
30
44
-8
0
-7
-55
10
-12
24
7
42
-57
45
37
15
25
69
48
74
-24
82
16
-48
43
48
29
6
71
-45
-4
-25
12
27
-7
-23
36
-9
-44
-15
63
8
-9
9
11
19
-13
61
-52
-13
13
84
31
7
-67
-39
27
30
34
29
-41
59
-33
29
69
8
0
52
7
63
82
45
66
63
-16
65
19
-26
73
-13
40
49
103
-12
3
-5
-3
-45
-39
-33
-138
-12
-43
35
43
45
4
37
-8
47
54
8
-7
-40
45
-30
-24
-39
-50
12
-19
36
-67
-17
-14
-25
14
7
18
7
-12
-31
-3
42
-33
33
35
-15
-33
1
37
49
69
47
42
-12
-30
-51
-3
32
94
66
-40
14
57
25
27
65
-12
63
53
25
10
-57
-19
9
-13
-25
-70
-14
-22
5
-25
26
-33
-40
-23
-26
-20
-42
10
-25
0
-1
-49
-70
10
12
-40
-16
-84
-46
-39
-18
-66
-43
2
-13
-34
7
-49
-20
-62
-26
-65
27
13
-72
-12
-38
-19
-68
-43
-16
-37
9
-45
-38
-43
8
-11
-8
-23
0
-36
-6
-50
-57
-64
-18
-54
-21
-22
-35
-31
-50
-29
-12
-14
-54
8
-8
-27
-44
-70
-10
-18
4
-2
43
4
0
-16
-7
-53
-55
-24
-7
-33
-23
12
-10
-80
-10
-13
-6
-40
-19
12
-5
20
-13
8
-42
-8
-14
-20
14
17
-48
12
30
24
-10
5
44
-34
-14
-22
-70
-26
-13
29
-37
6
9
6
-43
-22
86
-26
-28
42
3
18
-16
-37
-1
-23
13
-49
18
59
50
-16
7
-21
19
6
56
53
-35
49
-42
49
72
-72
20
44
-47
-68
-26
-70
-52
-29
54
-5
-62
67
-10
114
37
-16
18
37
24
50
-30
-73
20
74
-23
-54
-21
-27
-9
-22
-27
12
25
-4
-89
-26
-44
80
-62
22
30
-44
35
153
84
2
-70
42
23
-34
-11
-15
2
-16
-68
6
-62
3
-54
6
4
-58
12
-7
-89
8
-1
80
-52
-14
-58
-30
13
-37
-40
34
76
49
54
-49
51
-49
-36
-50
19
-1
35
73
0
16
-26
-38
-20
46
-37
24
-10
-64
-14
44
-15
7
-23
9
86
12
98
-5
-38
9
2
-57
11
5
-57
-55
9
91
67
-27
-27
35
-49
67
-6
-46
36
-24
45
-61
16
-25
-3
213
-39
-8
-23
46
-75
-21
-14
-10
18
-22
56
-91
-35
4
62
25
39
41
-30
94
10
46
19
-21
-2
-2
-33
14
33
63
88
11
19
-11
-38
62
-12
59
-5
-75
-53
-81
-55
-10
-5
70
31
-64
-91
-119
-51
0
-16
-39
-17
24
-29
-42
-66
38
-60
-38
45
-33
-45
-24
-23
23
-16
30
-34
-28
17
80
81
4
102
6
21
-44
42
39
-28
27
-34
-23
-3
-33
44
-32
3
7
-58
-66
-68
18
66
21
-4
-51
7
34
-85
-21
-40
-66
42
40
33
-5
125
6
-70
16
-27
46
25
25
-47
0
19
24
65
3
45
-2
74
26
-61
81
6
-13
-52
-40
18
-72
-18
-37
-3
-38
35
68
-71
32
43
-11
-17
-10
-4
-47
-47
0
65
50
-47
-21
-43
66
-69
59
-48
55
7
-45
-75
-2
21
-57
-23
21
-9
-10
53
75
72
-36
69
56
-24
9
21
-14
8
43
-24
68
-43
16
5
-3
19
73
47
-31
-26
-44
-30
-60
-28
-60
43
6
66
-13
-43
39
-73
12
-47
3
43
12
96
82
9
12
57
65
27
11
14
1
95
29
-13
-5
-62
59
40
0
-26
28
-53
51
25
-2
5
29
-58
-53
-22
30
-41
39
-30
44
20
53
46
9
-37
76
-4
42
-18
1
75
12
53
-28
-44
-39
53
27
8
40
23
75
0
-47
0
-60
37
12
58
76
-10
-6
14
-8
-25
42
-25
-14
-51
15
-42
-3
32
39
1
54
24
-31
33
13
-9
14
37
15
32
31
-28
-32
-23
-33
-29
-4
-64
-21
12
-44
-13
-45
-29
-15
-34
7
57
21
16
0
16
-48
-47
-26
-18
47
14
-68
65
11
150
50
-6
27
23
-18
8
-69
27
2
-41
41
23
-44
-21
-11
18
-28
40
32
22
21
7
-50
-47
10
-18
-11
-6
14
-10
-21
14
27
57
41
48
97
-45
-15
-23
20
8
-35
-24
-43
15
-27
-37
-31
-62
27
20
7
-7
24
-4
-9
9
-27
-27
47
13
21
24
39
-17
29
-72
73
29
12
29
36
-94
37
47
47
-26
-33
-11
54
-26
1
68
16
46
55
10
-27
-3
-18
42
45
58
-36
-17
-6
2
65
51
-42
-84
49
-20
19
-19
11
-43
-17
57
-37
-11
7
-16
46
-34
-28
22
67
-35
60
-9
35
-9
52
-53
-167
79
-34
102
-24
-13
28
-53
18
33
-8
-32
25
-10
31
28
18
-34
-28
1
18
-37
-11
-53
38
-30
-23
-39
-33
9
-42
28
13
57
15
12
8
-24
5
-2
9
49
33
60
-56
41
25
17
7
-9
-14
-14
-27
41
-16
0
-23
-38
47
53
26
75
-1
42
25
-25
-26
84
-31
47
68
-34
-34
-12
-19
-3
3
16
33
-22
-3
38
-22
-29
25
-11
-69
17
24
-25
-42
20
31
65
1
-24
-8
-5
-1
-11
13
-9
47
43
76
38
16
1
9
31
43
-29
9
42
32
21
15
-28
-34
75
4
38
-35
65
27
-19
-37
-15
-55
18
6
-15
-24
5
38
-12
56
81
34
-63
27
31
13
23
60
29
-33
-31
-5
55
2
22
22
-33
6
17
31
12
41
-81
45
52
47
-60
-31
32
15
-33
-10
69
-19
-22
-8
-68
-39
30
89
50
-14
-28
30
42
-39
0
23
51
-56
0
-27
39
-72
-33
72
-6
-46
-16
22
-12
-61
40
-12
-26
-41
-52
-15
-58
40
-9
13
-37
30
43
-7
102
-12
19
10
3
19
-6
-32
-3
55
38
42
-24
78
-16
27
-83
69
-5
-5
-33
62
10
34
49
62
-61
-102
-15
-30
-39
-39
-76
5
58
46
11
-54
-33
14
-48
32
62
-47
-16
-3
-40
46
-13
-8
5
-12
-13
-15
13
3
67
-5
-63
62
3
62
-35
39
-36
24
68
-18
53
74
-21
-5
35
18
-1
76
15
73
85
-71
-44
-11
-45
-86
-45
39
29
-5
-10
-26
28
-10
1
28
24
21
45
2
0
-44
-17
-47
18
-8
7
-36
6
-29
-34
55
17
8
40
-25
-20
74
52
23
31
45
47
15
-75
75
-50
-23
26
5
78
19
-68
26
96
44
6
-2
-71
24
86
-12
62
-54
42
41
10
-19
191
88
28
-16
43
59
66
-15
-99
-6
50
70
-51
-64
43
28
-13
70
0
43
-5
32
12
-20
57
22
5
-31
53
65
34
36
29
35
-20
-3
49
64
68
14
-65
14
23
60
-21
-25
-56
29
45
20
19
76
47
23
-37
-35
59
33
44
75
29
-15
55
-11
42
12
12
-16
43
75
-15
-55
85
75
-22
60
0
72
16
-1
79
-27
71
-26
0
-23
14
-18
12
-60
-40
-61
-8
2
18
-18
-44
-57
-39
-24
-24
1
-54
-27
-11
0
-59
-15
-29
-42
9
12
-24
-1
12
-61
-59
-72
-61
-25
13
-65
-33
-34
-25
18
-4
-39
0
-5
-8
-62
10
-1
-9
-37
10
-15
-76
-70
9
-69
-31
-3
27
22
6
-70
-71
-17
-50
0
-26
-27
-39
-10
-47
-13
-56
-19
-31
-1
-27
10
-47
-27
-36
35
31
-2
-44
27
-43
-42
4
-11
-30
-69
-28
-47
-46
-27
-70
15
-75
-30
-37
-48
-26
37
-43
-1
-26
-44
14
-47
-50
-47
-25
0
-1
-56
0
-3
24
-7
-8
-54
4
23
-11
-35
56
-40
-100
60
99
4
60
76
69
1
46
32
42
1
31
-44
34
3
61
-39
-39
-63
20
-18
-22
35
-3
12
-15
-44
-19
39
42
53
-31
-73
53
10
24
-9
115
-16
-26
-14
-45
26
6
36
-4
-114
75
19
-28
6
21
-23
-23
20
27
6
57
-31
66
26
2
-27
-42
-37
7
47
-2
52
-39
-38
-1
-11
46
1
26
-63
15
39
30
51
16
-6
-5
18
-21
27
-27
32
18
33
48
-55
11
-44
42
94
-37
25
-14
-17
30
9
-20
28
-46
102
-22
-20
-35
33
-33
5
-13
-20
13
-40
-40
-69
-44
-36
-26
-1
-31
9
-61
30
12
-48
-15
-29
-17
-31
10
-60
-8
1
11
-10
-15
-56
39
-16
-12
-13
-22
37
-32
-34
-36
-32
-28
1
-51
-44
-41
-15
-16
13
-21
-42
-65
-30
-32
39
-33
-21
14
-3
4
-19
-62
-27
3
-19
-19
-55
34
-29
-50
-41
-17
44
-25
9
1
-12
-37
-6
-15
-28
-7
19
-29
-24
8
-3
-48
-42
-42
-38
4
-33
11
37
-49
-16
-38
-53
19
18
-23
-25
-32
4
-5
-40
-52
-46
-36
-48
2
6
1
40
-43
-61
-44
-43
34
27
31
-38
7
-43
-62
-28
0
21
68
-29
-55
-34
-15
-39
-10
-32
-36
-58
-50
-64
1
-4
-3
-94
44
-28
-19
-13
-22
-7
26
10
-90
-58
15
-26
3
-10
-4
17
58
-16
-77
-51
-83
-22
-18
-34
-42
-44
-3
-3
-10
-30
33
-44
-43
43
0
-38
-71
-54
-72
-39
-6
-3
13
-24
-64
-35
8
7
31
30
-80
60
-66
7
-32
-2
-44
-48
8
-22
-16
0
18
0
-27
-63
-10
-44
-36
24
-65
-10
1
-60
-40
7
-41
39
13
-42
-29
-8
-77
24
-9
-21
-54
12
-47
7
-5
6
-42
21
31
-26
-43
39
8
-24
3
-11
-13
37
-57
-24
67
17
-1
30
-25
8
22
23
-65
29
19
28
13
-44
-19
17
61
-27
-46
-5
39
40
63
48
110
110
-8
-60
-37
23
-32
3
-14
-25
7
44
37
47
30
36
-13
28
61
20
-27
56
-9
39
86
-21
-2
-28
14
43
-17
31
24
-10
-52
9
18
-28
34
-21
40
35
-39
15
-61
-6
25
-26
-3
15
-16
-29
-60
-25
-34
-38
4
10
17
13
-42
60
-55
-27
-51
-74
-9
44
16
-14
-111
-25
47
39
-9
-40
6
-32
16
43
34
41
16
35
63
21
-54
34
57
-73
-23
-3
52
27
-127
-55
-7
29
3
-29
120
-11
48
-52
-17
2
45
-4
0
-9
-11
-49
13
5
-18
-63
32
-20
-17
-58
-45
-39
22
90
-30
49
4
-56
-41
-45
-39
51
-73
-51
-15
-23
15
-13
34
42
-12
75
-63
-73
-30
43
4
27
-54
-8
58
13
68
24
43
-11
62
11
27
-51
-10
49
-29
-5
-24
43
-16
16
-37
-3
-2
69
-6
46
20
45
8
-23
66
10
10
18
-15
42
-25
49
54
-35
22
-34
63
23
-53
-26
20
62
-76
49
-24
-40
-49
45
-20
66
-19
63
-45
-13
48
-21
71
39
15
-42
15
-38
-82
43
16
-35
-35
32
-40
23
58
13
34
21
-1
17
44
21
-56
0
-70
38
-2
-10
5
54
-17
-69
-1
-51
-17
17
1
47
-27
-65
-14
63
-71
-55
44
-35
50
-34
26
7
14
102
-51
0
-32
-3
-75
-7
-60
-6
11
-82
-1
-19
-6
-13
42
35
57
-23
-28
28
79
-13
65
-50
12
37
-36
16
-21
21
-12
41
1
25
43
17
-25
0
15
-33
43
-65
-1
65
-3
51
45
-50
23
-48
-40
16
2
-13
-54
28
17
-65
26
72
-2
11
1
-36
-40
24
-40
45
15
1
-43
-56
-5
0
98
-37
18
5
21
36
11
26
-47
24
66
1
14
-16
21
-18
61
45
-7
-61
-30
-32
-20
-14
41
185
-21
-26
-43
3
15
28
12
-12
36
28
56
59
0
-4
-28
95
53
-9
-11
13
15
-23
54
-23
60
0
34
-12
-60
55
-41
5
-72
-1
0
0
40
-8
45
-29
50
26
-14
43
-1
-59
3
7
-44
20
-6
32
0
33
2
59
19
-5
39
0
-42
-2
-66
-68
36
6
-29
-12
-70
-35
70
-39
23
-8
52
19
84
24
57
14
70
-34
27
-36
41
28
-17
56
-53
-7
-7
17
-39
-13
37
28
14
-19
27
16
-19
21
-2
30
-53
23
2
53
-9
-67
-4
17
5
62
-44
30
-18
-10
42
85
-46
78
2
59
16
24
3
34
-45
38
62
4
24
52
-2
-36
-42
0
-26
-21
56
-5
19
41
65
76
-27
13
-6
89
-17
-19
31
30
-18
-21
42
8
30
-46
7
-42
-34
53
-41
19
-8
-44
-21
142
32
42
9
72
-7
-3
-29
12
-48
16
6
31
18
50
34
4
-42
5
16
89
5
-7
-3
52
-18
-22
0
-19
-53
-86
-31
-1
-15
40
-10
63
-37
44
-48
35
47
-22
-7
-64
39
-4
37
9
-62
-36
-25
-25
-8
45
-65
-43
-37
-3
-74
-32
48
2
0
35
15
54
66
36
-26
-30
0
1
-14
10
-67
-33
69
46
67
-58
-3
6
5
50
0
22
-22
57
-47
8
-11
-3
42
-19
14
44
41
41
50
47
-8
-26
-14
7
-40
11
-16
-68
38
17
8
53
-18
12
21
15
1
-65
-65
2
-69
-19
20
56
-24
-43
-13
56
-52
57
0
36
-25
20
11
-21
-53
-3
43
-56
38
-20
54
-32
13
3
16
15
-8
18
47
-43
50
-2
13
-5
-34
17
5
6
36
82
25
27
60
2
24
5
44
25
67
-13
4
5
53
-22
22
13
-24
34
97
2
162
-37
14
47
-13
4
23
-150
-18
-2
33
74
4
-28
31
95
6
-32
79
29
-10
33
38
25
20
-17
29
-111
-50
29
44
30
87
8
35
-2
43
70
11
30
-53
-14
-33
70
-37
-33
98
47
-37
23
30
0
21
26
42
21
17
23
106
-13
62
-1
-52
48
-24
24
-4
47
26
78
9
-17
4
34
-23
-2
-55
35
20
-6
28
-41
-17
-53
51
-6
75
26
76
-16
40
23
-21
42
-7
-24
56
75
0
2
-15
-18
68
8
50
1
7
22
62
24
-48
60
-33
-51
-22
18
-10
-32
59
-31
-17
-97
39
19
37
-6
20
55
-56
-28
-23
1
10
45
129
22
-20
-43
-3
64
-5
-47
5
-86
37
0
-22
33
15
-7
-11
-22
-28
-39
59
-52
7
3
-16
-8
30
-39
-29
19
-30
-140
-3
0
77
-3
-12
62
-20
-41
-16
-24
-19
89
59
40
59
0
-24
2
-17
-18
37
24
9
-3
-20
-65
12
-12
85
7
5
42
70
-27
21
48
-15
20
11
17
-3
24
44
-11
9
13
12
-28
37
69
17
-10
0
8
73
-14
23
-7
-17
19
44
21
44
19
4
3
60
53
32
4
4
4
22
-36
120
8
-13
31
20
-4
18
-131
84
-17
44
7
61
39
-24
7
-14
15
6
21
-2
11
43
-27
47
-58
0
-9
43
-69
42
11
30
37
-56
3
-4
-80
8
-55
-21
23
59
5
55
37
-20
47
-29
22
-29
-61
72
17
25
6
-29
4
60
44
13
16
-25
-7
49
73
-56
6
-40
-49
0
-18
12
29
0
-60
43
-58
-16
69
-32
-49
41
38
47
-71
-46
-75
-7
36
-14
67
-56
17
18
11
0
-57
24
23
-5
-64
-189
10
-78
46
6
0
-23
14
-12
-14
36
-15
1
-5
4
55
23
-5
116
-3
13
19
27
-34
-11
-18
-31
-9
-15
-3
-25
-66
0
-6
40
45
-31
2
14
-13
5
69
22
54
0
69
-6
57
9
12
16
57
-61
-11
29
17
7
6
-45
33
75
-1
6
5
72
34
-60
39
-68
23
47
-37
-8
-39
-41
8
33
-10
24
59
-10
78
34
32
-38
16
-38
33
-16
1
44
-59
-45
-43
10
-41
-60
51
5
-23
-26
20
0
-47
-27
-27
-40
9
26
-7
-27
-14
-3
-30
-35
-51
28
-23
0
-42
165
-39
6
67
33
-18
43
-7
56
-7
-16
-54
-23
8
77
64
-16
-11
103
-36
25
52
13
16
-6
11
22
-17
-24
9
22
20
-25
-46
28
57
-26
0
-5
-5
5
62
30
5
73
57
76
3
55
-41
30
27
17
31
-25
6
0
5
-38
26
51
-12
0
13
-24
9
-7
73
-46
-15
-12
1
-12
44
19
-19
-47
-13
-59
11
5
25
43
2
-19
59
-7
-52
-43
27
-14
75
-27
10
45
-56
15
71
-49
-35
-20
54
5
12
-48
7
-40
16
-29
7
-26
43
56
44
-48
-7
19
-25
54
-6
69
-16
28
63
-10
-24
-16
52
76
-21
-4
-16
15
25
40
46
-42
24
-49
74
66
18
-37
8
-4
-9
31
31
25
14
-59
19
26
-54
40
-15
29
7
-6
66
52
-18
60
-54
2
68
105
50
33
-61
49
11
-56
-2
-17
-4
-27
-37
86
17
52
15
-5
82
24
28
57
23
-2
-18
-1
-46
9
29
5
-64
-43
0
-38
-3
-25
-14
48
45
-32
10
-52
-3
43
-6
51
24
27
20
53
-30
10
79
-45
11
40
-10
-16
-60
-40
-50
-27
39
-29
0
70
-5
-10
-56
29
58
-43
-25
-31
-3
-72
22
2
69
-7
43
-20
-63
-75
-26
60
-28
26
-74
-58
10
-28
9
-64
-52
-28
-51
7
0
-40
-11
22
18
-49
4
-16
63
11
-15
-10
-12
5
-61
-7
-32
-73
-36
-64
-55
-59
8
23
-2
5
-5
-40
-9
-22
-42
-28
24
-62
-22
-13
-68
8
-73
29
12
-26
-2
-20
-63
-39
-43
-10
14
-26
41
-17
-35
-74
1
-55
-21
-34
-47
34
-19
-47
-13
0
15
50
1
-6
-21
-33
-5
1
29
-63
15
10
-22
0
-66
31
19
-60
71
-21
32
36
-6
13
-12
-15
-18
-70
0
-2
78
23
-15
-49
45
-85
10
57
32
45
-27
49
-52
49
13
63
-31
-38
-5
99
42
68
-94
5
27
-1
-39
10
-66
67
27
60
14
-5
-46
-70
-31
-66
34
-31
-13
0
11
18
1
11
11
53
-31
-53
-63
0
-8
31
-7
-40
34
89
-34
55
-6
-52
0
40
33
47
-21
-7
91
-39
20
-45
-64
66
38
37
-9
-5
23
12
-3
10
9
33
50
47
70
27
-58
8
-20
28
56
-13
-22
22
5
-33
-36
-53
-17
13
39
-22
-36
-85
-46
0
-6
-4
-14
32
-14
-57
-30
-37
70
-36
-45
-69
-52
-17
-38
36
-75
42
-14
-4
-37
-45
53
5
76
-74
-44
-47
28
-36
32
-58
5
-72
1
2
-42
73
68
34
-3
-66
-17
-23
-11
13
-25
60
82
28
2
8
7
12
26
-16
64
2
-75
-23
-79
69
74
38
5
0
2
69
44
-40
-1
-53
-60
-16
48
-57
22
13
-2
-22
-47
47
64
-36
78
34
-60
-3
62
-57
-40
41
-62
-43
6
-4
-84
38
-25
-26
30
-51
26
-22
60
0
-12
-44
62
-33
-79
-33
19
-13
10
60
62
66
-77
36
-54
-13
70
41
-58
-26
-3
75
-41
93
-90
24
52
-46
-52
55
49
60
-49
80
46
88
-24
62
-16
16
-62
36
21
55
-32
-39
11
46
4
-32
-29
-78
28
27
99
-11
18
0
32
62
-48
31
-1
-61
40
-55
-81
3
-14
-51
-37
-39
-7
8
37
-29
-42
-18
25
19
44
-67
-7
88
71
3
31
75
-17
54
55
6
77
-53
7
-26
-46
75
29
-70
-11
-20
1
61
22
48
-13
51
47
70
34
-18
5
-21
-25
-5
32
52
99
12
-33
49
69
38
70
19
74
-36
131
-87
6
-31
-10
5
57
-69
19
-26
-49
10
-30
-21
-26
43
3
-29
10
8
19
-35
-9
18
-44
-57
40
-33
31
-12
7
-12
-51
-8
-34
-68
-51
-11
-44
-70
-37
26
-14
-36
4
-11
-15
-29
-35
-20
5
-8
-18
-19
-39
6
-58
-46
-12
-11
45
-21
-9
-15
22
-38
-24
15
-2
24
-44
-8
39
-11
-39
-32
-45
-23
-75
-18
13
12
7
-26
-32
-11
40
-65
8
-32
0
-28
-1
-14
-7
7
33
-66
-61
-33
-17
-36
-3
22
9
-40
-29
-39
-65
-41
-37
-24
-33
-2
39
-41
1
-42
-60
13
26
-31
5
19
-46
-51
-1
19
-25
-49
4
25
-38
55
-6
8
14
-39
-26
-9
12
17
-24
55
86
36
4
3
2
-12
8
22
-18
-22
12
77
9
-26
15
-41
65
-56
48
11
58
-25
14
42
62
-9
0
61
29
-5
-58
25
-64
85
77
14
-3
-38
65
28
-30
4
-125
79
10
11
-72
42
-8
5
-27
-72
32
-28
12
64
38
-37
0
-17
49
-26
21
52
38
-7
1
-66
6
25
-47
-58
-13
-66
39
45
-8
-22
-10
17
-4
45
64
-34
53
28
44
-70
-14
-42
44
60
15
58
19
-46
-9
21
-18
58
71
-4
-31
42
-9
23
66
14
65
60
-64
-31
-27
6
-16
3
11
-5
-56
23
-32
-3
26
24
24
97
-75
-24
44
-20
4
65
-62
-52
27
-143
20
-6
-5
-12
41
-134
-31
36
1
-9
14
31
3
-10
-68
-9
10
0
2
12
50
81
-94
12
-17
49
77
4
15
-52
16
-37
-52
-3
40
28
-25
72
69
83
0
16
38
8
17
19
-31
-28
-23
121
14
-13
20
-3
-32
-20
-65
37
0
98
51
29
-132
-6
75
0
-13
25
17
61
33
31
34
102
-27
62
78
15
-91
86
18
30
40
-39
24
-64
-41
-44
-35
-2
-5
-46
2
-3
23
-102
-44
36
-15
-13
4
4
52
-33
-58
63
5
-8
26
-17
-35
-96
-36
-43
30
-28
-91
85
63
61
27
9
-6
31
60
57
-3
32
60
-10
54
-18
-53
-39
0
-28
14
72
15
-17
-1
45
-62
-94
3
-44
-53
13
21
13
-20
32
32
10
59
47
93
5
-8
-25
13
-21
10
-74
-44
27
-55
-30
5
-60
87
13
-27
4
-30
-11
-8
3
0
13
80
-40
-71
-63
23
-27
3
-29
87
-36
-17
-66
-77
-35
-70
-12
68
-47
-78
38
72
-38
-31
57
-28
-44
-90
38
-22
35
-55
64
-9
19
-9
61
75
2
64
-28
26
43
0
61
50
62
-51
63
-34
-18
-24
-52
14
-55
4
72
52
-24
-59
-105
6
6
5
-51
-13
-112
62
-10
-10
-51
5
-7
58
35
-36
-16
-41
56
18
-10
-15
2
-34
0
30
-5
-84
17
56
-34
-61
1
0
-35
23
30
29
-76
70
46
7
-54
-56
-57
-32
51
12
0
-47
73
0
-38
16
18
-32
-13
42
34
-7
73
6
41
-49
-2
-64
-29
-17
90
35
54
-35
12
-10
76
-14
53
49
16
-33
44
67
26
-6
-1
11
-25
-55
29
-66
-19
-49
-12
64
58
-43
44
25
-19
-1
-24
0
27
23
63
43
10
-37
-1
-20
70
-18
15
10
-4
47
-40
33
36
47
-17
54
-48
4
34
1
-12
-2
27
47
30
-20
-27
-9
-1
-13
33
14
72
49
31
-12
9
5
-3
-9
-39
20
-12
-63
29
7
-37
-50
35
-6
-25
18
-17
35
14
29
-19
-47
38
-50
-29
-20
76
-25
15
-48
-74
33
14
-66
-2
-39
-63
15
40
16
-13
26
58
-74
76
15
36
70
49
31
-5
-10
65
2
41
20
53
27
-4
-33
4
-59
23
4
-34
20
43
35
-59
-31
27
1
20
51
-10
57
-12
-33
124
24
-25
68
6
24
-49
63
50
-16
-63
25
81
-24
76
28
31
97
-51
-67
-42
-66
30
36
3
-33
10
76
39
25
-9
-38
27
23
-37
-20
14
-3
21
0
55
27
-17
-8
18
-9
69
-111
45
-12
43
3
11
-41
44
-62
-2
-16
33
29
-109
-58
-13
2
15
4
-71
-2
-32
76
-31
-60
9
65
30
46
-3
27
-56
28
-31
-63
30
-23
-35
-17
72
8
37
-59
28
-30
42
45
-21
3
45
-76
53
26
-76
-50
60
-38
31
42
61
-81
-5
-44
0
11
15
-21
-243
-18
66
-58
-14
59
142
18
23
-103
-105
-87
80
-72
-9
12
-30
6
141
6
-60
-29
37
7
-57
-18
46
67
16
-5
218
-24
144
237
107
-56
19
22
38
41
-189
13
-2
-9
-50
-54
15
-110
-171
108
-23
-12
66
159
-109
-2
-22
60
70
-103
95
-3
-1
137
-24
-53
-23
-7
86
-41
0
68
-154
194
6
49
-71
219
-32
-2
26
-3
-26
-25
-84
54
-97
-138
-8
84
136
-7
9
-278
53
131
54
-68
-45
54
-215
46
-56
77
45
43
-86
30
75
4
79
0
103
53
70
-21
-25
-14
-28
-39
-18
-58
-71
-34
-12
3
-16
-59
19
13
-41
0
2
24
-66
-66
-40
-56
-61
-39
-2
-50
-9
-48
21
-46
-7
-8
-8
-7
-1
-73
4
-44
-37
-1
-20
-51
23
-26
0
-56
-22
9
-56
-65
-51
-72
6
-16
-32
-32
-22
50
-13
0
-2
33
1
4
-20
-49
2
12
-10
-8
-56
-55
-10
-8
35
-59
11
-41
2
-23
-11
-52
10
14
42
17
-46
-10
-39
-48
-6
-23
-69
-63
2
-21
0
-53
-52
-53
7
-15
0
0
-39
-4
-70
-52
-8
-21
-2
-39
-1
-66
-63
41
-28
44
-54
-12
-23
3
-22
58
-19
13
-45
37
-3
75
108
3
-77
4
-4
22
-6
-49
25
-12
3
0
-15
34
-16
35
-26
13
-10
19
-78
6
22
-58
-18
-27
-30
-28
47
58
-33
0
52
0
-44
-50
-35
-12
19
22
-75
59
60
23
-12
-14
-17
-110
67
66
-54
16
-28
-27
-15
-10
-16
-14
9
41
51
39
8
35
-1
60
62
-31
3
32
30
11
-67
12
31
64
7
93
48
-17
0
18
-23
-72
-55
49
46
-36
24
-15
-18
19
-77
-6
-45
-6
12
22
51
29
21
-3
26
-17
-40
-32
47
-99
-22
-7
-6
-38
-45
8
-18
-48
31
-47
45
54
-36
0
61
49
-69
-39
90
-13
90
21
53
-39
18
-18
-20
-23
13
-14
59
-45
93
25
-16
-32
57
1
50
262
23
66
65
65
-54
44
-20
58
-9
15
41
41
-4
-37
-43
32
-41
-25
-29
-40
-54
20
-12
36
27
21
80
-10
44
68
17
-15
34
30
45
5
-3
0
3
-10
-2
25
15
7
5
11
1
-1
-40
-10
8
23
23
28
46
83
52
39
-27
9
-17
115
17
19
24
-45
27
17
20
116
-22
42
30
110
-34
23
5
-20
-3
95
11
85
12
53
14
34
15
48
20
13
54
-72
-68
-27
124
21
-5
75
59
58
-46
3
-5
31
11
-15
47
-5
48
21
-6
-42
-5
-49
12
-4
-33
25
-35
-64
-42
43
-107
-39
-57
6
76
-37
-31
14
-13
-87
-76
56
3
23
26
57
-5
182
60
18
7
5
32
33
-57
23
28
-30
16
-42
9
21
-5
32
11
61
-21
-4
12
10
8
23
0
-23
-43
-68
-6
-5
5
-1
-36
29
-14
-88
34
9
-7
18
-61
20
-29
73
-8
36
-28
83
5
0
-51
72
-36
64
50
28
-8
-55
-53
-36
-28
-65
-43
-5
64
-46
15
-10
66
2
-46
-38
16
-12
-54
-71
-49
-67
-31
-70
12
-39
-53
-23
-57
-25
-22
-72
-36
-67
16
33
-29
-62
61
6
-69
-5
16
-20
15
31
0
-75
19
2
-41
-3
-64
-8
-77
0
9
-5
-11
19
-53
22
-12
-59
-38
-74
-59
-45
-52
-58
9
-5
72
39
-33
-7
-53
-72
-17
15
21
5
48
0
-68
-9
-57
-29
15
44
36
75
5
-31
-71
-40
24
-33
0
5
-68
-20
37
2
-24
13
67
-20
-19
-15
-13
1
-74
-16
-29
-42
77
28
4
-25
-24
-12
39
-4
20
37
-16
58
-45
52
-7
-4
-29
-11
6
2
14
-86
43
2
-44
63
62
10
-2
55
71
-36
-34
18
54
56
27
15
16
64
113
-20
-52
-53
-64
3
-30
10
51
80
46
5
21
-23
4
-39
-12
36
-41
-62
-22
60
24
46
48
52
-5
-36
67
5
-34
37
69
39
-64
22
58
-34
73
-28
24
2
-5
67
-15
-30
-4
3
-31
20
10
-14
5
-46
21
-25
27
-52
36
-59
-27
28
16
-25
-15
42
-13
20
-44
-33
4
28
-5
-35
0
33
54
-39
-23
30
28
-11
-13
45
7
9
3
-4
37
-14
38
1
6
17
27
28
89
48
-2
-63
-71
0
-34
-17
-22
-40
-76
-59
-30
8
-37
21
-25
9
4
-43
-19
86
-27
-8
-11
-20
67
6
-16
-4
16
50
-104
-102
26
-54
8
5
35
-27
80
-41
-93
50
33
-36
16
71
50
-55
-29
141
-28
33
65
-43
-29
-57
53
26
-11
-52
-26
64
59
-5
-35
28
43
-28
-88
-82
83
-4
97
25
1
12
-13
61
3
-86
-97
-36
-13
-30
50
30
11
45
80
85
0
-31
-38
-61
-3
-5
57
2
-15
-115
58
5
-11
-75
3
20
-7
-58
17
45
-54
-35
-31
-46
8
-34
17
-49
-66
-10
-8
-20
40
37
-40
-45
-9
-29
-53
16
-45
-21
-56
-23
-9
-8
13
-25
-63
-22
2
-18
-62
7
-68
2
54
-55
-47
-48
-41
16
-76
-45
37
-49
30
-67
-6
-33
-33
74
-71
28
-14
-19
-64
12
-54
-1
17
-46
-46
-66
-36
-34
-61
-45
-39
-11
-69
15
4
-24
-34
-65
65
13
-5
8
-34
-71
12
-32
3
3
21
-2
-19
26
-49
-45
2
0
15
4
60
-49
21
0
-66
-8
10
-18
4
-63
5
-35
-11
1
1
-12
53
-66
-5
-24
-63
-13
16
70
-39
19
-81
13
-2
-62
-47
-6
6
-95
-14
-12
0
-1
-50
17
-85
57
-51
-8
-203
68
-41
-66
181
-70
-24
-51
76
0
-29
30
5
-136
-76
-4
24
36
144
-34
-47
9
19
60
-35
12
20
121
-6
32
33
43
-26
-55
-21
-115
13
-76
20
-66
-82
-21
5
4
55
-29
145
-69
-32
107
42
-128
-88
65
-96
-18
-11
-2
86
-36
-27
-20
-61
66
-19
6
23
-10
5
12
42
3
9
17
-130
26
-108
-36
-138
59
-7
41
56
37
-34
-35
-31
42
-67
116
-15
15
-11
61
-4
-74
57
49
15
129
86
51
-7
35
-63
-27
8
-34
-28
-20
-30
-9
-28
-46
87
58
-23
78
-13
68
-27
44
37
-11
7
-52
62
22
-17
42
5
44
66
-55
24
9
-21
43
23
-74
-29
27
23
44
23
22
62
-19
28
76
-25
-11
-32
-18
30
45
43
-21
16
62
71
10
44
48
0
-20
15
8
-20
-35
31
-77
-31
21
62
74
-77
34
-47
41
-20
55
4
52
34
9
33
-24
0
5
17
68
-17
34
21
26
22
-31
-47
28
-17
-6
-24
5
10
-4
-45
-22
37
-73
-56
-3
11
-60
53
39
49
35
13
22
10
-25
-25
-16
10
-13
-23
-8
-25
9
-5
-48
45
-25
-19
-53
-21
-43
14
-7
19
-10
14
-56
-25
-36
-23
-32
-4
-69
40
-9
-27
-27
-15
32
-52
10
-47
-18
-12
-14
-57
-46
-28
-23
-29
-55
-38
-38
6
-43
28
8
-33
-44
-68
39
14
39
36
43
-26
6
-66
-34
11
3
0
-65
-43
-72
-28
-9
-6
23
19
-22
-45
14
-36
-29
-59
-23
43
22
33
15
6
-7
-10
-28
-57
-30
-10
7
-56
30
-55
-55
-4
-41
-61
12
38
44
9
17
-1
-32
-32
-49
-14
-63
-70
-31
-10
-41
-52
-44
-45
39
-26
-23
24
-42
-64
-60
-18
-31
-14
-4
-37
6
17
-58
-4
-23
-34
-43
-5
-7
-15
-48
0
0
22
-62
15
-56
-47
-21
-45
-49
-27
-40
26
-57
45
41
11
-56
8
-30
35
1
-42
-1
-4
20
35
-44
31
-52
-69
-67
-9
14
-24
-31
14
-32
15
-36
-62
-34
15
-18
-70
-24
-42
-25
7
-26
-19
22
6
-54
-23
-24
25
-9
-36
-2
29
43
24
-41
11
-46
-58
25
-58
-3
-26
-4
-45
42
-39
-63
-19
12
-72
-62
-8
2
-16
12
-3
-71
-51
12
10
3
1
21
-40
7
-55
-69
-29
4
42
-47
11
-57
-35
28
-4
7
-58
7
15
43
104
27
40
48
73
30
31
-39
13
47
52
-24
-5
31
42
40
-72
31
-71
-43
74
34
-49
-41
-3
-112
42
79
-52
7
52
22
21
-50
-44
8
37
-53
-21
-29
-34
-56
72
-60
-15
-25
81
-8
53
59
-52
56
-53
-46
-9
-5
60
-19
-48
59
-15
47
-56
73
-1
31
-16
28
-52
-33
-9
14
-2
8
-63
121
62
0
14
14
-19
-45
7
6
-41
-56
-25
-41
-34
75
44
65
-16
-6
54
-71
14
62
-50
-9
35
1
44
0
13
0
34
-32
-2
-13
10
-5
-15
-79
75
36
-16
-20
-12
-24
-77
40
62
116
20
-10
34
-23
-32
-44
56
-98
-4
-14
199
57
-97
11
-120
-83
21
-28
6
-14
72
-100
-64
-34
-61
-186
33
-3
117
-37
-31
18
41
-84
16
-56
-67
-223
34
29
-16
-22
56
-24
-81
22
-75
-93
-24
46
-17
18
-12
-24
35
-2
-135
-15
-37
87
-90
-88
-5
11
-39
-51
-5
-44
27
14
-25
-58
-76
-38
0
-67
49
28
80
-16
-24
66
-6
-119
3
-38
-39
8
27
-20
13
-178
96
52
15
-3
-28
40
32
-44
21
133
-74
-15
-3
-24
1
13
-25
-5
-46
-10
-44
-64
-18
1
-31
-22
-10
-40
-70
-42
-33
-63
-42
-18
-44
-14
40
-66
-10
-62
-6
0
-7
8
26
22
-26
-53
-31
1
-45
-51
-52
-1
14
-46
-11
18
-59
-35
19
-6
-33
-56
11
-69
16
14
-31
-29
-41
-12
-64
26
-44
-53
-19
39
-51
-33
-33
-63
-58
-36
-38
21
-33
-17
2
16
-53
-30
-14
-17
-34
4
21
-43
-11
-1
14
38
-37
-25
-68
-18
-69
-45
2
-7
-49
-37
-27
5
-40
-22
-3
21
-31
-11
-66
-21
-24
-14
8
-8
11
-7
0
-21
-12
-19
-49
-75
-5
13
-16
-54
-20
-49
46
-13
7
-24
3
1
1
-69
18
-23
-27
-40
16
10
-11
29
22
7
-72
-17
23
-14
-8
-62
42
-50
-38
23
-26
-72
-39
40
-70
-43
9
54
-53
-36
-11
-58
8
-29
-43
-37
-28
-14
-60
2
32
-34
-4
-42
-23
-3
-51
-10
-25
0
51
-42
-20
-18
-29
-45
-19
-17
43
-36
-50
-43
-44
16
-32
43
-17
15
-45
-58
-41
26
8
-19
6
-6
29
-71
23
-43
4
-56
36
2
-18
60
-39
-20
-16
22
-6
-40
-54
-42
-62
-49
48
15
1
14
-47
-20
-7
4
60
52
64
61
-17
49
42
16
47
52
73
0
-46
3
14
13
29
46
-32
40
50
43
54
57
44
11
-47
63
-44
31
-123
-1
33
50
29
-33
-128
-106
9
4
43
-45
74
31
10
-38
30
-50
-67
-31
18
16
76
-45
51
2
45
110
18
-46
59
-43
2
-14
-53
70
19
-23
8
69
8
-2
9
59
-70
49
-53
-6
40
69
56
-45
-15
10
-8
0
-61
149
-9
-10
-6
-47
7
-111
-43
37
10
34
64
-48
63
62
-14
43
71
9
49
-70
43
13
40
-38
32
72
-37
-14
21
-94
-5
-60
19
66
-11
-6
27
-52
-58
-13
43
-50
-35
2
-18
-37
4
-14
30
13
35
23
0
-37
-87
41
-67
44
-71
-78
-13
-20
25
43
-63
-58
43
50
-24
3
-8
31
0
-46
10
0
44
23
-33
-51
88
32
-54
-19
31
-21
-74
74
-61
24
-15
32
19
13
3
57
43
2
47
91
4
18
52
24
-69
37
8
-12
58
20
-20
-52
92
80
47
-1
-37
-33
14
-20
47
-56
80
58
-49
-107
-32
2
7
52
42
37
-24
-22
-1
6
29
-51
2
90
-34
-78
105
21
15
-61
32
12
-37
-3
13
-47
3
-20
-7
32
-13
8
12
-35
43
10
-14
-51
43
-34
-22
13
-64
22
-2
-35
0
3
-28
-7
-24
-28
-53
-26
31
-71
-11
-27
-44
-10
-53
-8
-40
17
-35
16
-63
-20
38
-19
8
-56
-59
37
-32
-59
-6
-38
2
-25
-32
-27
-46
-5
-45
-45
-41
-43
2
13
-9
-31
-63
14
-3
-63
-39
-61
-58
1
45
-25
-1
13
7
-46
15
-25
1
0
-31
-19
26
-19
-40
-44
-48
-54
-57
-59
-32
41
6
-10
-60
-18
-57
-69
19
25
-44
-65
-54
-4
11
-36
-9
0
11
-15
-14
16
-13
0
-61
59
-63
22
16
52
45
-10
104
-10
40
59
5
-40
-78
64
1
-36
96
59
112
-20
17
-19
102
-47
20
-18
17
-40
42
-52
46
-27
-15
-21
0
-41
44
161
53
17
12
-10
34
1
-62
26
-39
57
-84
-60
-12
-11
2
48
-70
-15
39
19
-51
-11
2
57
-24
43
8
-8
54
-22
-14
44
-8
7
10
64
66
27
-56
31
-58
-65
66
-48
-36
-40
-16
38
54
52
2
5
15
35
81
74
-18
27
-11
12
83
75
52
29
18
0
67
-2
21
82
73
81
43
54
-104
-9
-43
-8
36
67
3
-52
-11
5
-74
1
-44
-22
-66
7
-49
-45
-8
-69
-74
-23
-4
-29
-62
60
25
-33
31
-28
-13
20
0
-67
0
-17
-21
-17
-58
-17
40
-47
12
40
-55
-4
-31
29
-59
31
-27
-45
-21
-5
-45
28
-54
-10
-11
32
-55
-59
-54
11
3
12
-33
-38
9
-16
-51
-6
-60
-20
-18
-14
-4
-10
16
-28
-3
-33
0
3
-9
2
-64
-65
-35
-56
2
-3
17
33
17
23
-10
2
-9
-60
-41
-21
23
-16
-1
-69
-2
-64
-74
-9
-21
-43
-72
-30
-71
-13
-54
-55
-2
-59
-24
-12
24
-28
-18
-49
25;
