memory_initialization_radix = 10;
memory_initialization_vector=
62
117
-17
164
28
72
64
34
138
160
-98
-6
-27
-52
152
-65
-199
-8
-60
-97
-55
-18
-182
-158
-191
-130
-138
-127
130
22
-3
-19
-116
63
133
-126
-166
-123
26
162
-118
-165
-28
121
97
-103
-87
30
49
-4
155
126
89
-146
-246
168
30
26
-218
-134
103
-65
-96
-271
35
-27
-4
-234
-130
87
-96
-189
-92
-97
41
36
-3
-12
-2
5
-98
55
129
79
19
-1
-12
98
120
142
-63
99
82
145
70
-46
116
112
59
100
-154
48
79
-17
22
-142
-10
136
31
-39
-23
95
11
66
-76
-23
138
4
81
-63
114
93
121
-5
-59
-13
116
114
20
-58
-5
-14
132
28
-173
93
96
114
-110
-159
38
57
-36
-127
-75
6
72
100
50
-73;
