memory_initialization_radix = 10;
memory_initialization_vector=

7
14
-2
20
3
9
8
4
17
20
-12
0
-3
-6
19
-8
-24
-1
-7
-12
-6
-2
-22
-19
-23
-16
-17
-15
16
2
0
-2
-14
7
16
-15
-20
-15
3
20
-14
-20
-3
15
12
-12
-10
3
6
0
19
15
11
-18
-30
21
3
3
-27
-16
12
-8
-12
-33
4
-3
0
-29
-16
10
-12
-23
-11
-12
5
4
0
-1
0
0
-12
6
16
9
2
0
-1
12
15
17
-7
12
10
18
8
-5
14
14
7
12
-19
6
9
-2
2
-17
-1
17
3
-4
-2
11
1
8
-9
-2
17
0
10
-7
14
11
15
0
-7
-1
14
14
2
-7
0
-1
16
3
-21
11
12
14
-13
-19
4
7
-4
-15
-9
0
9
12
6
-9;
