memory_initialization_radix = 10;
memory_initialization_vector=

-708069
-410757
-994230
-710996
-1009632
-709
732783
635773
1051158
-1042850
-22897
1378074
-18813
-785969
-1097392
182271
860259
1030547
-467926
-281492
740208
1473847
74184
496480
209734
-299707
171818
803235
1466335
-936576
-1127451
-1177491
712541
-625017
-380059
-931153
480171
368498
-562456
943962
407203
725181
-325954
-1330312
-774625
785504
-1165689
-427097
-1685713
945197
690396
-880759
117823
662196
653271
803901
-1029438
-654406
-1110420
296679
-207954
-926678
-947403
-20691
196549
606279
-184419
265926
-758822
-1139753
1355372
1119607
-296685
-336908
-680213
-717380
388064
-161924
-432890
828677
-641169
475917
-726171
-922957
-861023
-1298546
-1153644
-345762
-817561
1435747
-1080101
879692
1064970
372540
339387
-657737
-1776548
257376
609923
1377503
44234
666142
1726575
-1015222
-298108
467988
-311148
1198096
-128783
1296953
1282006
196938
483553
1191338
-1608084
629592
-620333
202589
-255887
-125782;
