memory_initialization_radix = 10;
memory_initialization_vector=

-10
-3
0
6
0
-3
-10
2
0
0
-3
0
0
2
0
-1
-1
-3
0
7
7
2
-8
-10
-8
-7
2
5
-9
-1
-2
-2
7
-3
5
-6
6
3
9
7
5
1
0
-11
-11
3
-10
6
3
5
-1
0
6
-8
5
-2
-12
0
-8
-10
-7
-6
8
-4
-12
4
0
-3
7
-12
-3
0
6
3
3
2
-19
-1
0
0
-8
-2
3
2
-4
-10
0
-8
5
-8
5
-2
1
6
-2
1
6
-6
1
3
-4
-8
-4
-8
5
-4
-3
3
5
1
-6
-3
6
-10
-3
-3
-10
-6
4
-2
6
0
0
-6
-6
-4
7
-2
-5
5
5
-1
-10
0
-5
5
-4
-8
-1
-6
8
-8
-7
8
9
9
1
0
-1
5
-8
0
-8
-1
-6
10
-3
-4
0
2
10
0
-6
-2
-5
4
1
-9
3
-4
8
9
-4
-2
-4
11
6
-3
3
11
3
3
9
-2
1
-8
-6
-4
-4
-2
5
-4
7
0
0
-7
-8
10
2
0
10
-7
8
2
-8
-1
0
1
4
4
0
-11
-8
-8
-8
-9
-11
2
-4
-7
-1
-1
9
1
-1
-7
-10
-12
3
5
29
-2
-11
6
-11
5
-8
10
8
-10
-6
-1
-6
-10
-15
3
-4
-1
-9
2
9
4
9
-11
-8
2
-1
8
11
2
4
-4
-4
-10
-2
5
2
1
-6
-6
8
3
7
-2
-5
4
-6
0
-7
3
-5
0
-5
9
0
8
-4
-6
-1
-1
-2
-5
1
7
-9
-9
0
-4
2
-7
-3
-5
0
-1
-2
-3
0
-5
-6
7
-7
3
5
-8
2
-3
-2
-4
-4
-2
-3
10
4
13
0
2
-1
-11
-12
-7
-3
9
6
3
-3
0
3
-2
2
6
8
7
-3
-9
-4
0
2
-8
-2
0
-4
2
7
4
-3
-1
-14
-4
4
-9
5
-5
6
4
8
1
5
-14
-5
8
3
-1
4
2
-1
5
-3
-6
9
5
4
11
10
-7
5
-1
-8
-5
-6
9
-6
5
-4
-7
10
-5
-4
-2
3
-1
-6
6
-6
4
-11
-4
-10
10
6
0
1
-7
0
2
-6
-7
11
-6
-10
4
-7
0
-11
3
-6
2
-2
2
2
-5
8
-3
-3
-9
-2
2
2
4
3
8
0
0
7
9
-10
1
3
-1
-1
-5
-3
-7
1
4
0
1
0
0
-1
-5
0
4
-6
4
-5
-13
-6
0
-11
2
5
3
-7
7
7
-8
0
4
0
3
-9
0
-2
-10
1
-7
10
1
2
-6
-1
17
5
-6
-3
7
13
-5
-6
4
-2
-5
-3
-5
-6
-8
4
6
-3
-8
-7
4
-1
-5
-3
0
-9
-5
1
1
1
-7
3
3
1
-4
-9
-2
-8
-3
-7
-4
10
-1
-7
-12
6
4
2
-3
3
0
0
7
-2
-3
7
-3
6
-2
0
1
5
11
8
-8
-6
7
-7
-7
5
-11
-3
-11
-3
5
-13
0
-7
-6
7
-2
1
9
1
-11
4
-3
-1
1
-18
0
-5
1
1
-6
-12
-6
6
6
-11
-12
7
-4
8
-3
-12
-4
0
-4
9
0
-3
-1
-14
4
-12
-8
-3
-3
-2
-11
0
-4
10
-1
-4
1
3
0
-6
0
6
0
3
-3
-4
2
7
-8
-9
5
-2
4
1
-6
8
-4
-12
-1
3
-8
10
-5
-8
0
8
7
-9
3
-8
0
3
6
7
-1
3
-4
-7
-2
-7
3
3
-2
-2
0
3
0
6
2
13
-2
10
5
8
-5
-7
1
-1
10
-7
5
-2
-2
-1
-1
0
4
9
-7
6
-5
4
-5
7
-2
-3
-1
2
3
-8
6
0
2
5
12
7
2
-18
-9
-8
-5
-4
-1
-6
-2
0
3
-3
5
0
-6
-1
-6
4
0
-9
4
-7
-4
-2
-1
-3
8
-12
-2
6
-10
-10
6
1
-1
-5
-8
0
0
-2
0
4
0
-3
9
-3
-2
-3
10
3
-2
0
1
0
-1
-5
6
-6
-6
-9
-9
2
4
-12
0
0
6
3
2
1
-3
-5
-5
9
-4
0
1
2
9
6
5
-1
3
-13
-5
8
-9
-9
-7
-5
-5
-12
6
5
1
-13
0
1
2
4
-1
-10
-1
0
4
5
5
9
-2
3
-8
0
6
2
3
-5
-8
4
-6
1
-6
-1
-8
-2
-8
-10
0
-3
-5
11
0
-5
9;
