memory_initialization_radix = 10;
memory_initialization_vector=

143182720
12022461
-33970560
37936016
-86578080
52699668
100040056
113435240
40140380
-78027800
-79323544
-98442440
-24799498
-66628684
-121805288
15714562
34298208
-75943464
-51071412
36912504
73589784
-146357712
68627520
130948384
-45922008
-135687904
-28058008
-85207072
127668688
35134560
-57138352
-2712708
79130000
66231948
127974584
-131930456
63187972
-103059776
-174450496
-67435200
-51154540
72039272
-83655864
-18015302
40445452
-78673016
-112615944
9287475
54123848
-26119916
28980816
-72925200
-52475688
98547200
98623240
-70927224
151143968
-24809804
47312804
56059996
45997744
101993048
10861722
-135783696
101352736
-111172384
88870336
-89081728
82472176
47608768
-68441800
35117676
45955468
-109727160
-127562536
109027544
-95828832
-134068192
-63096432
150672032
101169296
-107913608
15063032
-36847628;
