memory_initialization_radix = 16;
memory_initialization_vector=
0000000000000000fffe0000
0000ffff00010000ffff0001
0000fffffffffffdfffc0002
fffc00020001fffffffdfffe
fffc000400010000fffffffd
fffd000000020000fffc0000
fffcffff0002fffffffe0000
fffbffffffff000000010000
fffa0001fffd000200010000
fff90002fffc000100030000
fffd000000000000fffdfffd
fff60000000000030000ffff
fff80001fffb00000000ffff
fff9fffdfff900000001ffff
fffefffa0000000000040002
fff70004000000040002fffc
fff80001fffe000400030002
0000fffcfffc000000040000
0002fffc0000000000000002
000200000003fffeffff0001
fff70001fffc000600010002
fff500010001000500050008
fffbfff9fffeffff00000003
000100010001fffa00000004
0003000200010000fffcffff
fffcfffe0005fffd00000003
fffe00000006fffcfffe0002
fffdffff0005fffefffdfffe
000000010003fffefffd0000
ffff00030001000000000000
fffeffff0001fffdfffe0001
fffd00030001fffd0000fffc
fffa00020000fffefffdfffd
00000005fffefffe0001fffe
00030000fffd00000000ffff
fffd000300050000fffc0000
fffc000600020002ffff0001
fffd00030001000000030000
00010000fffe000000000000
0001ffffffff000000020002
fff800060001000300000003
000000060000000000040003
ffff0000fffc000000030004
0001fffe0000000000020006
000500010001000000000001
fff800010000000300040004
fffe0003fffe000100010002
00010000ffff000300010004
0002fffdfffd000000000000
ffff0002fffe000000000000
00080000fffc0002fffdfffb
00010000fffd0001fffffffc
00000000fffa000400000000
fffcfffefffc000200030000
fffefffdfffb00010000ffff
fffb0000fffd0000fffbfffb
fffb0002fffe000500030001
fffe0001fffc000300040001
00020001fffc000000030001
0000fffffffd000000010001
fff90005ffff0001fffefffb
fffc00040000000200040004
0000fffe0000000300040005
0002fffc0000ffff00000002
0001fffffffffffdffff0000
fffd0001fffb00050005fffe
fffc00010000000400060008
0001fffa0003fffb00020005
000200000000fffcfffefffe
000400000000fffefffefffd
fffffffd0000000200030005
0000ffff0001fffbffff0001
0004fffc0003fffafffdfffc
00000000fffefffe0000fffd
0000fffcfffffffcfffe0000
fffb000100020000fffe0001
fff700020002000100000003
fffc0001fffe000000000002
fffe00000000fffffffefffe
000000000001fffdfffe0000
ffff000000010002fffefffe
fff800020000000300020002
fffcfffe0000000000020004
0003fffffffefffe00000000
0004ffffffffffffffffffff
00000001ffff0002fffcfffe
fff90000fffc000000020003
fffefffffffb000000010003
00000000fffe000100000002
00000000fffd00000000ffff
00000003000000010000fffe
ffff0003fffb000200000001
fffc0002fffd000200020003
0000fffcfffa000100020001
0002fffffffe0000ffffffff
00000000fffdfffffffeffff
00000002fffc000200010000
00000003fffa000200000000
0000fffefffa0002fffe0002
0003fffefffefffffffe0001
fffeffff00000001fffc0001
fff700060000000400000009
fffa00000000000000040006
0000fffe0001fffa00000005
000200000002fffffffc0000
ffff000000000001fffb0000
fffa0006fffc000400000003
fff80000fffe000200010007
fffbfffbfffbfffc00000005
ffff0000fffc000000000000
0000000300020001fffafffb
00010008fffc00020000ffff
fffb0001fff70002ffff0001
fffdfffbfff700020000fffd
fffb0000fffd000200030003
000200010000fffcfffffffc
00050008fff8000100010001
00060003fff40002fffffffe
0007fffcfff70003fffffffa
0006fffbffff000300020000
0000ffff0003fffcfffcfffe
00010003fffbffffffff0000
00070000fffafffdfffffffd
0003fffcfffcfffffffe0000
0007fffa0002000000010001
0003fffd0001fffcfffefffc
fffc0003fffd0000fffefffb
fffd0005fffe000500000005
fffe0001ffff000400040003
0000fffe0004fffe00000003
fffafffe0001fffdfffafffc
fffa0002fffc0001fffffffb
00000006fffc000000040004
0000fffd0004ffff00030004
fffffffd0004fffafffe0001
fffc00000000fffefffdfff7
fffe00050000000000010000
fffe00040001000000020007
fffffffb0006fffbfffe0002
000000000007fffbfffd0000
fffa0003000100000003ffff
fffe00020004000000030004
ffff00000006fffc00010001
fffefffe0002fffcfffafffd
fffc00010000fffcfffcfffb
ffff00010001ffff00020006
fffd00020005fffd00000004
fffcfffd0003fffffffe0000
fffa0000fffffffffffafffc
fff90001ffff0000fffdffff
fffefffdfffdfffefffdffff
00000000fffc000000000000
fffdffff0001ffff00000000
fffe0000fffc0000fffefffd
fffffffffffdfffc00000000
0000fffefffffffc0000fffd
fffd000000040000fffefffc
fffefffe0000fffc0000fffe
fffe0002fffcffff00000000
0000fffcfffdfffefffcffff
fffefffffffcfffefffefffd
0000fffd0001fffffffcfffe
0000ffff0000fffe0000fffd
0000fffdfffd000000030000
fffdfffd0001fffffffe0003
00000000fffefffe0000fffd
fffdfffd0001ffff00000000
00000000fffc0000fffdfffe
fffffffffffdfffd00030001
fffdfffd0001fffe0000fffe
fffd0000fffeffffffffffff
000000020000fffcfffffffc
ffff0000fffe000000010000
fffffffd0000000000040004
fffffffffffcfffe0000fffe
0000000200000002fffdfffb
fffd0000fffd000400020001
fffc0002fffc000200010001
0000fffdffffffff00000002
0000000000020001fffe0000
fff90000000000030000fffe
fff90001fffc000100040002
fffc00000000fffe00000005
000000000003fffdffff0001
fffffffefffffffdfffdfffb
fffefffffffc000400040004
fffd00000000000100000005
000000000005fffd00000002
fffd000000010000fffffffe
00000000000000000000fffd
0000ffff0002ffff00010006
0000ffff0003fffe00000004
0000fffe0000fffffffefffe
fffb0000fffd00000001ffff
fffd0000fffbffff0000fffe
000100000000ffff00000000
0004fffffffffffffffcfffc
0000fffefff90000fffdfffe
00030000fffc0001ffff0000
0000fffdfffe0000fffffffe
000100000000000000000000
fffefffc0000000000020000
fffcffff00000001fffe0000
fffbfffeffff000400010000
fffd0000fffe000100060002
00000004000000040000ffff
00000002fffd00030000ffff
ffff0000fffb00040000fffe
0000fffdfffd00040000fffe
0002fffbfffc000300030002
00040002ffff000300030000
00030001000100020000fffe
0005ffffffffffff00000000
0004fffdfffd00020002ffff
00050000fffc000500020004
0004ffff0004fffffffeffff
0005fffb00030000ffff0001
0001fffd0003fffbfffc0000
0007000200000000fffefffe
00010003000000030002ffff
0000fffe0000fffcfffe0000
fffffffc0001fffe00000001
0001fffb0003fffdfffeffff
0002000400000000fffbffff
00020002fffe000000020000
00040004000100030000ffff
000400010002000500050000
00080005fffe00020006fffe
00080002fffe00030000fffe
0009fffdfffc00040000fffe
0008fffd0001ffff0000fffd
0007fffe0004fffefffefffe
000900000006fffdffff0000
000700000004ffff0001ffff
00080001fffe00010000fffd
0006fff50000fff9fffefffd
0006fffb0002fffdfffafffd
0001fffa0003fffbfffbfff7
0005fffe0001fffb0000fff9
00030002ffffffffffff0000
fffefffdfffc00040002fffd
fffcfff8fffcffffffff0000
0000fff9000000000001fffe
fffefffd0003fffcfffffffc
fffcfffe0004fffefffffffd
00020003000000070004fffe
fffdffff0001000400020000
fffffffeffff000500050000
fffe0000ffff000400040002
fff8fffa0001000000000000
fffd0001fffe00040001fffe
00010002000000020000fffe
fffefffefffc000500030001
0000fffffffa000400040003
fffffffffff9000400030000
00040006fffd00040002fffd
00060002fffd00010004ffff
0004fffffffe00000000fffe
0007fffefffa000400010000
00020001fff8000100000000
00040001000000010000fffe
000400000005ffff00010000
0006fffd00030000fffefffc
00090000fffe0002fffdfffc
00060000fff80000fffdffff
0004fffc0004fffc00010001
0001fff90007fffc00000000
0001fffe0006fffdfffdfffd
0003fffefffefffcfffefffc
0003fffdfffe0000ffffffff
fffffffe0003fffd00000000
fffb000000020000fffe0002
fffd0000000300010000fffd
fffb000100010000ffff0001
fffdfffe0000000000010000
fffa000000010002fffe0003
fff90006fffe0000ffff0001
fffc0005ffff000000020003
0001ffff0002fffb00010005
ffff00020002fffc00000001
fffa00020000000200000005
fffc0003ffff000000010006
0000fffe0000000000000005
fffbfffd0002fffefffe0002
ffff00030001000100010001
000000030000000300010001
fffcfffffffb000300000004
fffffffefffcffff00000000
fff7fffcfffd00020000ffff
fff8fffffffe000200000000
00020000fffc00010000fffe
0000fffffffc000100000000
0000fffbfffb00020001fffb
fffdfffefff9000200010000
fffefffa0000000300010002
0005fffffffffffe0000fffd
0001fffefffe00000000fffc
00030000fffe0000fffdfffd
0001fffffffffffefffeffff
fffffffdffff000000000000
fffe0001fffe000100040003
0004ffff0006000100000001
000200040001fffe0000ffff
000100050001fffa00010002
fffeffff0003fffafffd0000
fffbffff0003000200020006
000000010006fffe00010003
000000040003fffdfffe0001
000000040003fff8fffdfffd
ffff00070000fffdfffbfffc
fffc00020005000400010006
fffd00040002fffd00000003
fffd00020002fffbfffc0000
fffc00070000fff9fffcfff8
fffb00070000fffefffefff9
fffd00040008000000000004
ffff00020004000000010004
ffff00030004fffafffd0000
fffd00060001fffafff9fff8
000000050002fffe0000ffff
fffd00060005000200010004
fffc00010005ffff00010000
fffe00070002fffafffbfffd
fffe00060000fffefffcfffc
ffff00050003000000030001
fffa0000fffe000000000000
fffbffffffff000000000000
fffefffe00000000fffe0000
fffbfffdfffd000200000002
fffdfffefffefffcffff0000
0000ffff0000fffffffcfffc
ffff0000fffc0000fffffffe
fffa0000000000030000ffff
fffefffeffff000300030004
00000003fffd000000010000
0003ffff0000fffffffdfffd
0000000000000003fffbfffa
fffb0004fffb00020000fffd
fff90002fffd000300030002
000200010001000000000000
0000fffcfffd0000fffdfff8
fffe0005fffd0002fffffffd
fffa0002ffff000100010001
fffb0000ffff000000050006
000000000001fffafffe0001
0000000000000000fffdfff8
fffb0002000000030000fffc
fffb0008fffc000400050005
fff9fffb0002000100040007
0000ffff0001fffbfffa0001
000000050003fffbfff9fffe
fffb0005ffff0001fffefffe
fffb0000fffd000200030003
0000ffff0001fffd00010003
0002ffff0000fffbfffdfffd
000100050002fffafff8ffff
0000000800000000fffffffc
fff80001fffc000100060006
fffdfffa0001fffe00000003
ffff00000000fffafffffffd
fffb00050006fffafffbfffd
fffd0009fffd0002fffefffe
fff90000ffff000200010005
fffcfffa0001000000000005
fffe00030001fffbfffaffff
ffff00010002fffafffdfffb
0000000700000000fffffffd
fffe0005fffc000300040004
ffff00000000ffff00010004
ffff000300000000fffc0000
fffe00010003fffefffefffb
000200070000fffefffeffff
ffff0006fffb000000020001
fffd0002ffff000300000000
fffd0000fffeffffffff0003
0000000100030000fffe0000
fffdffff0001ffff00020005
000000030005ffffffff0002
fffd000600070000fffcffff
fffb00060002000100010002
000000000005000000000003
0000fffe0001fffeffff0002
0006ffff0006fffbfffc0001
0007000700020000fffbfffc
0007000600010002fffefffc
fffb000000020000fffffffd
fffefffffffffffe00000002
0003fffc0001fffd00010000
00070002fffefffafffd0000
000a00040000fffdffffffff
00000000fffd00040002fffe
fffdfffcffff000200030000
fffdfffdfffa000100020003
0000fffffffcfffe00030001
fffefffffffffffe0000fffd
00020000ffff00040003fffd
00000000fffe00050000fffe
00000003fff9000500000000
fffa0000fffb000200020000
fffafffffffc000000040001;
