memory_initialization_radix = 16;
memory_initialization_vector=
0003fff800090002fff70000
0007fff80007000000030007
fffffff90005000000040007
000a0008fff70000ffff0001
00010001fff100000001fffd
00040000000afffafff80000
0004ffff0001000300000000
0002fff90001000800080008
00080003fff3000400010001
000a0008fff80001fffefff6
fffafff900060000ffff0005
0000fff6fffc000000050006
fffffff9fffa000600000007
fffd0001fff000070004fffa
0009000a00020008fffcfff7
fffcfff9fffffffdffff0002
fff4fff60000000600080003
0000fffffff200050000fffe
fffd0007fff800090005fff9
fffa000600050004fffdfffc
fffdfffafffafffe00070000
fffffffbfff5000700050004
fff50001fffb000700070006
fff70003fffa000300000003
fff5000000020006fffdfffc;
