memory_initialization_radix = 10;
memory_initialization_vector=
3
7
-1
10
1
4
4
2
8
10
-6
0
-1
-3
9
-4
-12
0
-3
-6
-3
-1
-11
-9
-11
-8
-8
-7
8
1
0
-1
-7
3
8
-7
-10
-7
1
10
-7
-10
-1
7
6
-6
-5
1
3
0
9
7
5
-9
-15
10
1
1
-13
-8
6
-4
-6
-16
2
-1
0
-14
-8
5
-6
-11
-5
-6
2
2
0
0
0
0
-6
3
8
4
1
0
0
6
7
8
-3
6
5
9
4
-2
7
7
3
6
-9
3
4
-1
1
-8
0
8
1
-2
-1
5
0
4
-4
-1
8
0
5
-3
7
5
7
0
-3
0
7
7
1
-3
0
0
8
1
-10
5
6
7
-6
-9
2
3
-2
-7
-4
0
4
6
3
-4;
