memory_initialization_radix = 10;
memory_initialization_vector=
-44254
-25672
-62139
-44437
-63102
-44
45798
39735
65697
-65178
-1431
86129
-1175
-49123
-68587
11391
53766
64409
-29245
-17593
46263
92115
4636
31030
13108
-18731
10738
50202
91645
-58536
-70465
-73593
44533
-39063
-23753
-58197
30010
23031
-35153
58997
25450
45323
-20372
-83144
-48414
49094
-72855
-26693
-105357
59074
43149
-55047
7363
41387
40829
50243
-64339
-40900
-69401
18542
-12997
-57917
-59212
-1293
12284
37892
-11526
16620
-47426
-71234
84710
69975
-18542
-21056
-42513
-44836
24254
-10120
-27055
51792
-40073
29744
-45385
-57684
-53813
-81159
-72102
-21610
-51097
89734
-67506
54980
66560
23283
21211
-41108
-111034
16086
38120
86093
2764
41633
107910
-63451
-18631
29249
-19446
74881
-8048
81059
80125
12308
30222
74458
-100505
39349
-38770
12661
-15992
-7861;
