memory_initialization_radix = 10;
memory_initialization_vector=
4474460
375701
-1061580
1185500
-2705565
1646864
3126251
3544851
1254386
-2438368
-2478860
-3076326
-774984
-2082146
-3806415
491080
1071819
-2373233
-1595981
1153515
2299680
-4573678
2144610
4092137
-1435062
-4240247
-876812
-2662721
3989646
1097955
-1785573
-84772
2472812
2069748
3999205
-4122826
1974624
-3220618
-5451578
-2107350
-1598579
2251227
-2614245
-562978
1263920
-2458531
-3519248
290233
1691370
-816247
905650
-2278912
-1639865
3079600
3081976
-2216475
4723249
-775306
1478525
1751874
1437429
3187282
339428
-4243240
3167273
-3474137
2777198
-2783804
2577255
1487774
-2138806
1097427
1436108
-3428973
-3986329
3407110
-2994651
-4189631
-1971763
4708501
3161540
-3372300
470719
-1151488;
